#include "magic_wand_model_data.h"
  
 // We need to keep the data array aligned on some architectures.
#ifdef __has_attribute
#define HAVE_ATTRIBUTE(x) __has_attribute(x)
#else
#define HAVE_ATTRIBUTE(x) 0
#endif
#if HAVE_ATTRIBUTE(aligned) || (defined(__GNUC__) && !defined(__clang__))
#define DATA_ALIGN_ATTRIBUTE __attribute__((aligned(4)))
#else
#define DATA_ALIGN_ATTRIBUTE
#endif

const unsigned char g_magic_wand_model_data[] DATA_ALIGN_ATTRIBUTE = {
   // Paste the data of the char array in `src/model.cc` here
   0x08, 0x00, 0x00, 0x00, 0x54, 0x46, 0x4c, 0x33, 0x62, 0xff, 0xff, 0xff,
  0x03, 0x00, 0x00, 0x00, 0x10, 0x00, 0x00, 0x00, 0x24, 0x00, 0x00, 0x00,
  0x78, 0x00, 0x00, 0x00, 0x24, 0x00, 0x00, 0x00, 0x05, 0x00, 0x00, 0x00,
  0x78, 0x05, 0x00, 0x00, 0xb0, 0x04, 0x00, 0x00, 0xe0, 0x02, 0x00, 0x00,
  0x60, 0x02, 0x00, 0x00, 0x54, 0x01, 0x00, 0x00, 0x01, 0x00, 0x00, 0x00,
  0x78, 0x00, 0x00, 0x00, 0x13, 0x00, 0x00, 0x00, 0x74, 0x2d, 0x00, 0x00,
  0x70, 0x2d, 0x00, 0x00, 0x7c, 0x2c, 0x00, 0x00, 0x08, 0x2c, 0x00, 0x00,
  0x9c, 0x2b, 0x00, 0x00, 0x4c, 0x0f, 0x00, 0x00, 0x38, 0x0e, 0x00, 0x00,
  0xbc, 0x0c, 0x00, 0x00, 0x60, 0x06, 0x00, 0x00, 0xfc, 0x05, 0x00, 0x00,
  0x78, 0x05, 0x00, 0x00, 0x48, 0x2d, 0x00, 0x00, 0x44, 0x2d, 0x00, 0x00,
  0x40, 0x2d, 0x00, 0x00, 0x3c, 0x2d, 0x00, 0x00, 0x38, 0x2d, 0x00, 0x00,
  0x34, 0x2d, 0x00, 0x00, 0x30, 0x2d, 0x00, 0x00, 0x2c, 0x2d, 0x00, 0x00,
  0x0f, 0x00, 0x00, 0x00, 0x4d, 0x4c, 0x49, 0x52, 0x20, 0x43, 0x6f, 0x6e,
  0x76, 0x65, 0x72, 0x74, 0x65, 0x64, 0x2e, 0x00, 0x00, 0x00, 0x0e, 0x00,
  0x18, 0x00, 0x04, 0x00, 0x08, 0x00, 0x0c, 0x00, 0x10, 0x00, 0x14, 0x00,
  0x0e, 0x00, 0x00, 0x00, 0x14, 0x00, 0x00, 0x00, 0x5c, 0x00, 0x00, 0x00,
  0x60, 0x00, 0x00, 0x00, 0x64, 0x00, 0x00, 0x00, 0x84, 0x00, 0x00, 0x00,
  0x12, 0x00, 0x00, 0x00, 0xa4, 0x2c, 0x00, 0x00, 0x40, 0x2c, 0x00, 0x00,
  0x98, 0x2b, 0x00, 0x00, 0x38, 0x2b, 0x00, 0x00, 0xd0, 0x2a, 0x00, 0x00,
  0x7c, 0x0e, 0x00, 0x00, 0x60, 0x0d, 0x00, 0x00, 0xe4, 0x0b, 0x00, 0x00,
  0xa0, 0x05, 0x00, 0x00, 0x3c, 0x05, 0x00, 0x00, 0xb0, 0x04, 0x00, 0x00,
  0xe8, 0x03, 0x00, 0x00, 0x38, 0x03, 0x00, 0x00, 0xa4, 0x02, 0x00, 0x00,
  0x10, 0x02, 0x00, 0x00, 0x90, 0x01, 0x00, 0x00, 0xfc, 0x00, 0x00, 0x00,
  0x80, 0x00, 0x00, 0x00, 0x01, 0x00, 0x00, 0x00, 0x00, 0x00, 0x00, 0x00,
  0x01, 0x00, 0x00, 0x00, 0x11, 0x00, 0x00, 0x00, 0x08, 0x00, 0x00, 0x00,
  0x1c, 0x04, 0x00, 0x00, 0x58, 0x03, 0x00, 0x00, 0xc8, 0x02, 0x00, 0x00,
  0x24, 0x02, 0x00, 0x00, 0xac, 0x01, 0x00, 0x00, 0x10, 0x01, 0x00, 0x00,
  0x94, 0x00, 0x00, 0x00, 0x10, 0x00, 0x00, 0x00, 0x04, 0x00, 0x00, 0x00,
  0x6d, 0x61, 0x69, 0x6e, 0x00, 0x00, 0x00, 0x00, 0x8e, 0xff, 0xff, 0xff,
  0x00, 0x00, 0x00, 0x09, 0x04, 0x00, 0x00, 0x00, 0x1c, 0x00, 0x00, 0x00,
  0x10, 0x00, 0x00, 0x00, 0x04, 0x00, 0x00, 0x00, 0xae, 0xd4, 0xff, 0xff,
  0x00, 0x00, 0x80, 0x3f, 0x01, 0x00, 0x00, 0x00, 0x11, 0x00, 0x00, 0x00,
  0x01, 0x00, 0x00, 0x00, 0x10, 0x00, 0x00, 0x00, 0xf6, 0xfb, 0xff, 0xff,
  0x00, 0x00, 0x00, 0x19, 0x01, 0x00, 0x00, 0x00, 0x2e, 0xd4, 0xff, 0xff,
  0x10, 0x00, 0x00, 0x00, 0x12, 0x00, 0x00, 0x00, 0x14, 0x00, 0x00, 0x00,
  0x20, 0x00, 0x00, 0x00, 0x02, 0x00, 0x00, 0x00, 0x01, 0x00, 0x00, 0x00,
  0x03, 0x00, 0x00, 0x00, 0x08, 0x00, 0x00, 0x00, 0x49, 0x64, 0x65, 0x6e,
  0x74, 0x69, 0x74, 0x79, 0x00, 0x00, 0x00, 0x00, 0x68, 0xd4, 0xff, 0xff,
  0x00, 0x00, 0x0e, 0x00, 0x18, 0x00, 0x08, 0x00, 0x0c, 0x00, 0x10, 0x00,
  0x07, 0x00, 0x14, 0x00, 0x0e, 0x00, 0x00, 0x00, 0x00, 0x00, 0x00, 0x08,
  0x03, 0x00, 0x00, 0x00, 0x18, 0x00, 0x00, 0x00, 0x0c, 0x00, 0x00, 0x00,
  0x04, 0x00, 0x00, 0x00, 0x3c, 0xd4, 0xff, 0xff, 0x01, 0x00, 0x00, 0x00,
  0x10, 0x00, 0x00, 0x00, 0x03, 0x00, 0x00, 0x00, 0x0f, 0x00, 0x00, 0x00,
  0x05, 0x00, 0x00, 0x00, 0x02, 0x00, 0x00, 0x00, 0xa6, 0xd4, 0xff, 0xff,
  0x10, 0x00, 0x00, 0x00, 0x11, 0x00, 0x00, 0x00, 0x14, 0x00, 0x00, 0x00,
  0x30, 0x00, 0x00, 0x00, 0x02, 0x00, 0x00, 0x00, 0x01, 0x00, 0x00, 0x00,
  0x03, 0x00, 0x00, 0x00, 0x1a, 0x00, 0x00, 0x00, 0x73, 0x65, 0x71, 0x75,
  0x65, 0x6e, 0x74, 0x69, 0x61, 0x6c, 0x2f, 0x64, 0x65, 0x6e, 0x73, 0x65,
  0x5f, 0x31, 0x2f, 0x42, 0x69, 0x61, 0x73, 0x41, 0x64, 0x64, 0x00, 0x00,
  0x98, 0xd4, 0xff, 0xff, 0xd6, 0xfd, 0xff, 0xff, 0x00, 0x00, 0x00, 0x08,
  0x03, 0x00, 0x00, 0x00, 0x24, 0x00, 0x00, 0x00, 0x18, 0x00, 0x00, 0x00,
  0x0c, 0x00, 0x00, 0x00, 0x00, 0x00, 0x06, 0x00, 0x08, 0x00, 0x07, 0x00,
  0x06, 0x00, 0x00, 0x00, 0x00, 0x00, 0x00, 0x01, 0x01, 0x00, 0x00, 0x00,
  0x0f, 0x00, 0x00, 0x00, 0x03, 0x00, 0x00, 0x00, 0x0e, 0x00, 0x00, 0x00,
  0x04, 0x00, 0x00, 0x00, 0x01, 0x00, 0x00, 0x00, 0xfe, 0xfc, 0xff, 0xff,
  0x00, 0x00, 0x00, 0x09, 0x01, 0x00, 0x00, 0x00, 0x36, 0xd5, 0xff, 0xff,
  0x10, 0x00, 0x00, 0x00, 0x10, 0x00, 0x00, 0x00, 0x14, 0x00, 0x00, 0x00,
  0x2c, 0x00, 0x00, 0x00, 0x02, 0x00, 0x00, 0x00, 0x01, 0x00, 0x00, 0x00,
  0x10, 0x00, 0x00, 0x00, 0x15, 0x00, 0x00, 0x00, 0x73, 0x65, 0x71, 0x75,
  0x65, 0x6e, 0x74, 0x69, 0x61, 0x6c, 0x2f, 0x64, 0x65, 0x6e, 0x73, 0x65,
  0x2f, 0x52, 0x65, 0x6c, 0x75, 0x00, 0x00, 0x00, 0x7c, 0xd5, 0xff, 0xff,
  0x00, 0x00, 0x0a, 0x00, 0x10, 0x00, 0x04, 0x00, 0x08, 0x00, 0x0c, 0x00,
  0x0a, 0x00, 0x00, 0x00, 0x02, 0x00, 0x00, 0x00, 0x10, 0x00, 0x00, 0x00,
  0x04, 0x00, 0x00, 0x00, 0x01, 0x00, 0x00, 0x00, 0x0e, 0x00, 0x00, 0x00,
  0x02, 0x00, 0x00, 0x00, 0x0d, 0x00, 0x00, 0x00, 0x03, 0x00, 0x00, 0x00,
  0x7a, 0xfd, 0xff, 0xff, 0x00, 0x00, 0x00, 0x16, 0x01, 0x00, 0x00, 0x00,
  0xb2, 0xd5, 0xff, 0xff, 0x10, 0x00, 0x00, 0x00, 0x0f, 0x00, 0x00, 0x00,
  0x14, 0x00, 0x00, 0x00, 0x30, 0x00, 0x00, 0x00, 0x02, 0x00, 0x00, 0x00,
  0x01, 0x00, 0x00, 0x00, 0x70, 0x00, 0x00, 0x00, 0x1a, 0x00, 0x00, 0x00,
  0x73, 0x65, 0x71, 0x75, 0x65, 0x6e, 0x74, 0x69, 0x61, 0x6c, 0x2f, 0x66,
  0x6c, 0x61, 0x74, 0x74, 0x65, 0x6e, 0x2f, 0x52, 0x65, 0x73, 0x68, 0x61,
  0x70, 0x65, 0x00, 0x00, 0xa4, 0xd5, 0xff, 0xff, 0xe2, 0xfe, 0xff, 0xff,
  0x00, 0x00, 0x00, 0x05, 0x01, 0x00, 0x00, 0x00, 0x38, 0x00, 0x00, 0x00,
  0x2c, 0x00, 0x00, 0x00, 0x14, 0x00, 0x00, 0x00, 0x00, 0x00, 0x0e, 0x00,
  0x14, 0x00, 0x00, 0x00, 0x10, 0x00, 0x0c, 0x00, 0x08, 0x00, 0x04, 0x00,
  0x0e, 0x00, 0x00, 0x00, 0x03, 0x00, 0x00, 0x00, 0x01, 0x00, 0x00, 0x00,
  0x03, 0x00, 0x00, 0x00, 0x01, 0x00, 0x00, 0x00, 0x01, 0x00, 0x00, 0x00,
  0x0d, 0x00, 0x00, 0x00, 0x01, 0x00, 0x00, 0x00, 0x0c, 0x00, 0x00, 0x00,
  0x42, 0xd6, 0xff, 0xff, 0x10, 0x00, 0x00, 0x00, 0x0e, 0x00, 0x00, 0x00,
  0x1c, 0x00, 0x00, 0x00, 0x40, 0x00, 0x00, 0x00, 0x04, 0x00, 0x00, 0x00,
  0x01, 0x00, 0x00, 0x00, 0x07, 0x00, 0x00, 0x00, 0x01, 0x00, 0x00, 0x00,
  0x10, 0x00, 0x00, 0x00, 0x22, 0x00, 0x00, 0x00, 0x73, 0x65, 0x71, 0x75,
  0x65, 0x6e, 0x74, 0x69, 0x61, 0x6c, 0x2f, 0x6d, 0x61, 0x78, 0x5f, 0x70,
  0x6f, 0x6f, 0x6c, 0x69, 0x6e, 0x67, 0x32, 0x64, 0x5f, 0x31, 0x2f, 0x4d,
  0x61, 0x78, 0x50, 0x6f, 0x6f, 0x6c, 0x00, 0x00, 0x44, 0xd6, 0xff, 0xff,
  0xc2, 0xfe, 0xff, 0xff, 0x00, 0x00, 0x00, 0x01, 0x24, 0x00, 0x00, 0x00,
  0x18, 0x00, 0x00, 0x00, 0x04, 0x00, 0x00, 0x00, 0xb4, 0xfe, 0xff, 0xff,
  0x01, 0x00, 0x00, 0x00, 0x01, 0x00, 0x00, 0x00, 0x00, 0x00, 0x00, 0x01,
  0x01, 0x00, 0x00, 0x00, 0x0c, 0x00, 0x00, 0x00, 0x03, 0x00, 0x00, 0x00,
  0x0b, 0x00, 0x00, 0x00, 0x07, 0x00, 0x00, 0x00, 0x09, 0x00, 0x00, 0x00,
  0xd2, 0xd6, 0xff, 0xff, 0x10, 0x00, 0x00, 0x00, 0x0d, 0x00, 0x00, 0x00,
  0x1c, 0x00, 0x00, 0x00, 0x2c, 0x00, 0x00, 0x00, 0x04, 0x00, 0x00, 0x00,
  0x01, 0x00, 0x00, 0x00, 0x15, 0x00, 0x00, 0x00, 0x01, 0x00, 0x00, 0x00,
  0x10, 0x00, 0x00, 0x00, 0x0c, 0x00, 0x00, 0x00, 0x74, 0x66, 0x6c, 0x2e,
  0x63, 0x6f, 0x6e, 0x76, 0x5f, 0x32, 0x64, 0x31, 0x00, 0x00, 0x00, 0x00,
  0x18, 0xd7, 0xff, 0xff, 0x00, 0x00, 0x0e, 0x00, 0x1a, 0x00, 0x08, 0x00,
  0x0c, 0x00, 0x10, 0x00, 0x07, 0x00, 0x14, 0x00, 0x0e, 0x00, 0x00, 0x00,
  0x00, 0x00, 0x00, 0x05, 0x01, 0x00, 0x00, 0x00, 0x3c, 0x00, 0x00, 0x00,
  0x30, 0x00, 0x00, 0x00, 0x14, 0x00, 0x00, 0x00, 0x00, 0x00, 0x0e, 0x00,
  0x18, 0x00, 0x17, 0x00, 0x10, 0x00, 0x0c, 0x00, 0x08, 0x00, 0x04, 0x00,
  0x0e, 0x00, 0x00, 0x00, 0x03, 0x00, 0x00, 0x00, 0x03, 0x00, 0x00, 0x00,
  0x03, 0x00, 0x00, 0x00, 0x03, 0x00, 0x00, 0x00, 0x00, 0x00, 0x00, 0x01,
  0x01, 0x00, 0x00, 0x00, 0x0b, 0x00, 0x00, 0x00, 0x01, 0x00, 0x00, 0x00,
  0x0a, 0x00, 0x00, 0x00, 0x46, 0xff, 0xff, 0xff, 0x00, 0x00, 0x00, 0x11,
  0x01, 0x00, 0x00, 0x00, 0x7e, 0xd7, 0xff, 0xff, 0x10, 0x00, 0x00, 0x00,
  0x0c, 0x00, 0x00, 0x00, 0x1c, 0x00, 0x00, 0x00, 0x40, 0x00, 0x00, 0x00,
  0x04, 0x00, 0x00, 0x00, 0x01, 0x00, 0x00, 0x00, 0x15, 0x00, 0x00, 0x00,
  0x01, 0x00, 0x00, 0x00, 0x08, 0x00, 0x00, 0x00, 0x20, 0x00, 0x00, 0x00,
  0x73, 0x65, 0x71, 0x75, 0x65, 0x6e, 0x74, 0x69, 0x61, 0x6c, 0x2f, 0x6d,
  0x61, 0x78, 0x5f, 0x70, 0x6f, 0x6f, 0x6c, 0x69, 0x6e, 0x67, 0x32, 0x64,
  0x2f, 0x4d, 0x61, 0x78, 0x50, 0x6f, 0x6f, 0x6c, 0x00, 0x00, 0x00, 0x00,
  0xd8, 0xd7, 0xff, 0xff, 0x00, 0x00, 0x0e, 0x00, 0x14, 0x00, 0x00, 0x00,
  0x08, 0x00, 0x0c, 0x00, 0x07, 0x00, 0x10, 0x00, 0x0e, 0x00, 0x00, 0x00,
  0x00, 0x00, 0x00, 0x01, 0x30, 0x00, 0x00, 0x00, 0x24, 0x00, 0x00, 0x00,
  0x10, 0x00, 0x00, 0x00, 0x0c, 0x00, 0x10, 0x00, 0x00, 0x00, 0x04, 0x00,
  0x08, 0x00, 0x0f, 0x00, 0x0c, 0x00, 0x00, 0x00, 0x01, 0x00, 0x00, 0x00,
  0x01, 0x00, 0x00, 0x00, 0x00, 0x00, 0x00, 0x01, 0x01, 0x00, 0x00, 0x00,
  0x0a, 0x00, 0x00, 0x00, 0x03, 0x00, 0x00, 0x00, 0x00, 0x00, 0x00, 0x00,
  0x06, 0x00, 0x00, 0x00, 0x08, 0x00, 0x00, 0x00, 0x00, 0x00, 0x0a, 0x00,
  0x0c, 0x00, 0x07, 0x00, 0x00, 0x00, 0x08, 0x00, 0x0a, 0x00, 0x00, 0x00,
  0x00, 0x00, 0x00, 0x03, 0x01, 0x00, 0x00, 0x00, 0x42, 0xd8, 0xff, 0xff,
  0x10, 0x00, 0x00, 0x00, 0x0b, 0x00, 0x00, 0x00, 0x1c, 0x00, 0x00, 0x00,
  0x28, 0x00, 0x00, 0x00, 0x04, 0x00, 0x00, 0x00, 0x01, 0x00, 0x00, 0x00,
  0x40, 0x00, 0x00, 0x00, 0x03, 0x00, 0x00, 0x00, 0x08, 0x00, 0x00, 0x00,
  0x0b, 0x00, 0x00, 0x00, 0x74, 0x66, 0x6c, 0x2e, 0x63, 0x6f, 0x6e, 0x76,
  0x5f, 0x32, 0x64, 0x00, 0x2c, 0xd8, 0xff, 0xff, 0x22, 0xd9, 0xff, 0xff,
  0x04, 0x00, 0x00, 0x00, 0x40, 0x00, 0x00, 0x00, 0x92, 0xb1, 0x3c, 0xbe,
  0xbc, 0xea, 0xd8, 0xbe, 0xf3, 0x80, 0xfb, 0xbe, 0x58, 0x14, 0x61, 0xbf,
  0xd6, 0xf2, 0x39, 0x40, 0xdf, 0x9e, 0x14, 0xbf, 0x17, 0x62, 0xb3, 0xbf,
  0xc9, 0x7d, 0x7b, 0x3e, 0x8b, 0x6c, 0x8e, 0xbd, 0x95, 0x92, 0x27, 0x3e,
  0x3a, 0x04, 0xe8, 0xbd, 0xf1, 0xb1, 0x7f, 0xbf, 0x04, 0xe7, 0xaa, 0xbf,
  0xb2, 0xc7, 0xa9, 0xbf, 0x8d, 0x29, 0x0b, 0xbf, 0x01, 0xdc, 0x23, 0xbf,
  0xca, 0xd8, 0xff, 0xff, 0x10, 0x00, 0x00, 0x00, 0x0a, 0x00, 0x00, 0x00,
  0x10, 0x00, 0x00, 0x00, 0x20, 0x00, 0x00, 0x00, 0x01, 0x00, 0x00, 0x00,
  0x10, 0x00, 0x00, 0x00, 0x0d, 0x00, 0x00, 0x00, 0x73, 0x74, 0x64, 0x2e,
  0x63, 0x6f, 0x6e, 0x73, 0x74, 0x61, 0x6e, 0x74, 0x31, 0x00, 0x00, 0x00,
  0xac, 0xd8, 0xff, 0xff, 0xa2, 0xd9, 0xff, 0xff, 0x04, 0x00, 0x00, 0x00,
  0x20, 0x00, 0x00, 0x00, 0xfc, 0x34, 0x56, 0xbf, 0x4c, 0xac, 0x99, 0xbf,
  0x41, 0xb7, 0x10, 0xc0, 0x3b, 0x2f, 0x54, 0xbf, 0xa5, 0x40, 0x74, 0xbe,
  0xab, 0xbe, 0xb8, 0xbf, 0x1e, 0xdd, 0x65, 0xbf, 0x8d, 0x37, 0xe0, 0xbf,
  0x2a, 0xd9, 0xff, 0xff, 0x10, 0x00, 0x00, 0x00, 0x09, 0x00, 0x00, 0x00,
  0x10, 0x00, 0x00, 0x00, 0x20, 0x00, 0x00, 0x00, 0x01, 0x00, 0x00, 0x00,
  0x08, 0x00, 0x00, 0x00, 0x0c, 0x00, 0x00, 0x00, 0x73, 0x74, 0x64, 0x2e,
  0x63, 0x6f, 0x6e, 0x73, 0x74, 0x61, 0x6e, 0x74, 0x00, 0x00, 0x00, 0x00,
  0x0c, 0xd9, 0xff, 0xff, 0x02, 0xda, 0xff, 0xff, 0x04, 0x00, 0x00, 0x00,
  0x00, 0x06, 0x00, 0x00, 0xf6, 0x9b, 0xf3, 0xbc, 0x08, 0xe1, 0x4f, 0xbe,
  0x1d, 0xbb, 0x32, 0xbd, 0xa6, 0xa8, 0x3b, 0x3d, 0x59, 0xb0, 0x6a, 0x3e,
  0x32, 0xcc, 0x7b, 0x3d, 0x54, 0x66, 0xf5, 0xbd, 0x04, 0x5a, 0xba, 0xbd,
  0x4d, 0x02, 0x46, 0xbd, 0x5c, 0xc7, 0x44, 0xbe, 0x01, 0xc8, 0x43, 0x3d,
  0xa0, 0x48, 0xb1, 0x3c, 0x54, 0x08, 0x96, 0xbe, 0xd1, 0x08, 0x87, 0x3d,
  0xb3, 0xe4, 0x06, 0x3f, 0x47, 0xbb, 0x26, 0x3e, 0x3a, 0xac, 0x23, 0xbd,
  0xfc, 0x54, 0x0a, 0xbe, 0x52, 0x19, 0x65, 0xbc, 0x4b, 0x4f, 0x35, 0x3a,
  0xf9, 0xb8, 0x31, 0xbe, 0x1d, 0x84, 0xaa, 0x3c, 0x6e, 0xf3, 0xbb, 0x3c,
  0x94, 0xa8, 0xe1, 0xbb, 0x69, 0x5e, 0xd2, 0xbd, 0x25, 0x96, 0x82, 0xbe,
  0xcf, 0x46, 0x06, 0xbf, 0xe8, 0x79, 0xcd, 0xbd, 0xfe, 0x5f, 0x8d, 0xbd,
  0x9f, 0x56, 0x04, 0xbf, 0xb3, 0x1c, 0x0a, 0xbe, 0xd2, 0x28, 0xfe, 0xbc,
  0x2b, 0x0e, 0x2f, 0xbe, 0x67, 0xc0, 0x47, 0xbe, 0xf5, 0x54, 0xa6, 0x3d,
  0xa0, 0xbc, 0x3b, 0x3f, 0x12, 0xf3, 0x21, 0xbe, 0x80, 0x9d, 0x72, 0xbe,
  0xf7, 0xfd, 0xcd, 0xbd, 0x12, 0xad, 0xa1, 0x3d, 0x86, 0xe8, 0x6e, 0xbe,
  0x10, 0x75, 0xbf, 0xbd, 0x9b, 0xc7, 0x08, 0xbf, 0x4a, 0xed, 0x57, 0x3c,
  0xd0, 0x3c, 0x2e, 0xbe, 0x47, 0xa5, 0x0e, 0xbf, 0x9a, 0xcc, 0xff, 0xbc,
  0x5a, 0x54, 0x16, 0x3e, 0x2e, 0x73, 0x29, 0x3b, 0x11, 0x1e, 0x51, 0x3d,
  0xc0, 0xf3, 0x41, 0x3e, 0xe7, 0xc4, 0x98, 0xbe, 0x05, 0x9d, 0x10, 0xbe,
  0x2c, 0x88, 0x8c, 0xbd, 0x83, 0xcc, 0x23, 0xbe, 0xec, 0xe7, 0x47, 0xbe,
  0x3f, 0xc3, 0xeb, 0xbc, 0x09, 0x57, 0x87, 0xbd, 0x3b, 0xdf, 0x42, 0x3f,
  0x84, 0x3c, 0x2d, 0xbe, 0x24, 0x0a, 0xcc, 0xbd, 0x62, 0xfd, 0x1b, 0x3f,
  0x18, 0xf3, 0x1e, 0xbd, 0x37, 0xb7, 0x2e, 0x3d, 0x26, 0x07, 0xb6, 0xbc,
  0x33, 0x2d, 0x30, 0xbe, 0x12, 0x89, 0x03, 0xbd, 0x19, 0x0e, 0x11, 0xbe,
  0x8d, 0xaf, 0x83, 0xbc, 0xeb, 0xd9, 0x13, 0xbe, 0x3f, 0x3d, 0x09, 0xbe,
  0xfe, 0x94, 0xc4, 0xbd, 0x4f, 0x08, 0x19, 0xbe, 0xa3, 0xe9, 0x9d, 0xbd,
  0x77, 0x26, 0x74, 0x3e, 0xec, 0x66, 0xf6, 0xbd, 0x11, 0xf1, 0xb4, 0xbe,
  0x87, 0x2b, 0xc1, 0xbd, 0x79, 0x45, 0x4f, 0xbd, 0x99, 0x47, 0x33, 0xbd,
  0xea, 0xbd, 0x06, 0xbe, 0xf5, 0xdc, 0x07, 0xbd, 0x57, 0x9b, 0xfc, 0x3d,
  0x69, 0xd6, 0xc7, 0xbd, 0x95, 0xb4, 0x60, 0xbd, 0xce, 0x58, 0x9a, 0x3d,
  0xa9, 0xf8, 0xff, 0xbc, 0x2a, 0x3f, 0x13, 0x3f, 0xcc, 0x2e, 0xf1, 0xbd,
  0x87, 0x65, 0x5d, 0x3c, 0x78, 0x9f, 0x53, 0xbe, 0x92, 0xc0, 0x8d, 0xbd,
  0x0a, 0xeb, 0x08, 0xbd, 0x30, 0x50, 0x27, 0xbe, 0x2c, 0xc8, 0xd3, 0x3d,
  0x5e, 0xea, 0xe3, 0xbb, 0x42, 0x06, 0xdd, 0xbd, 0x27, 0xaa, 0x27, 0xbe,
  0x23, 0xd5, 0xfe, 0xbe, 0xe5, 0x7c, 0xaf, 0xbe, 0xe7, 0xc0, 0x11, 0xbd,
  0xe5, 0xf9, 0xf1, 0xbe, 0xfe, 0x46, 0x93, 0xbe, 0x6c, 0x52, 0x2d, 0x3d,
  0x6c, 0x78, 0x3e, 0xbe, 0xa5, 0x79, 0xb8, 0xbe, 0x90, 0xd3, 0x05, 0xbf,
  0x5c, 0x54, 0x05, 0xbe, 0x42, 0xd7, 0x8e, 0xbb, 0x55, 0xcf, 0x18, 0xbf,
  0xc2, 0x5d, 0xf9, 0xbe, 0x06, 0xe3, 0xbe, 0xbe, 0x5e, 0x49, 0xb7, 0xbe,
  0x00, 0x96, 0x0b, 0xbf, 0x4e, 0x84, 0x41, 0xbf, 0x9a, 0x9f, 0xed, 0xbe,
  0xd1, 0x75, 0xcf, 0x3e, 0x60, 0x73, 0x0d, 0xbf, 0x09, 0x68, 0xc2, 0xbd,
  0x16, 0x24, 0x97, 0xbe, 0xbd, 0xff, 0x20, 0xbe, 0xbd, 0xa4, 0xa6, 0x3d,
  0x76, 0x86, 0x05, 0x3b, 0xdd, 0x2a, 0x60, 0x3e, 0xb6, 0x1e, 0xb9, 0xbc,
  0x13, 0x42, 0x45, 0xbe, 0x28, 0x8c, 0x96, 0xbd, 0x0b, 0x6a, 0x02, 0x3e,
  0xec, 0xc1, 0xff, 0xbd, 0xfd, 0xba, 0x18, 0x3e, 0xcb, 0x57, 0x1b, 0xbe,
  0x93, 0x51, 0x36, 0x3f, 0x54, 0xf1, 0x19, 0x3d, 0x08, 0x0b, 0x16, 0xbe,
  0x91, 0xea, 0x03, 0xbe, 0xd3, 0x76, 0xc9, 0xbd, 0x09, 0xb5, 0xe8, 0xbd,
  0xd4, 0x77, 0xb3, 0x3e, 0xf1, 0x07, 0x3f, 0xbe, 0x22, 0xb0, 0x9b, 0xbe,
  0x89, 0xbc, 0xa6, 0xbd, 0x21, 0xe1, 0xae, 0xbd, 0x5d, 0xe1, 0x18, 0xbe,
  0xff, 0x0d, 0xde, 0xbc, 0x4c, 0x25, 0x08, 0xbe, 0x7c, 0x90, 0x98, 0xbd,
  0x01, 0xda, 0x3e, 0xbe, 0x9d, 0x05, 0x16, 0xbe, 0xb9, 0x8f, 0x0d, 0xbe,
  0xf7, 0xa8, 0x66, 0xbe, 0x6e, 0x53, 0xe8, 0x3d, 0x9c, 0x2a, 0x5c, 0x3e,
  0x57, 0x2d, 0x08, 0xbe, 0xd3, 0xeb, 0x5c, 0x3d, 0xf3, 0xc6, 0x30, 0x3e,
  0x14, 0x6e, 0x27, 0xbe, 0xe6, 0x19, 0xbb, 0x3c, 0x88, 0x3c, 0x4a, 0x3e,
  0xc7, 0xe2, 0x23, 0x3e, 0x55, 0x2b, 0x94, 0xbd, 0xc7, 0xef, 0xef, 0xbd,
  0x81, 0x2e, 0x6c, 0x3e, 0x12, 0xf7, 0x13, 0x3f, 0xa1, 0xc3, 0xd0, 0xbd,
  0x9b, 0x5f, 0xf8, 0x3d, 0xa0, 0x43, 0x23, 0x3e, 0xf8, 0xe7, 0x4c, 0x3d,
  0x28, 0x43, 0xa0, 0x3d, 0x39, 0xc0, 0xc7, 0xbe, 0xcd, 0x55, 0x61, 0xbe,
  0x20, 0x87, 0x1b, 0xbd, 0x99, 0x3a, 0x4e, 0x3e, 0xff, 0xd0, 0x3c, 0x3e,
  0xb0, 0x9d, 0x0a, 0x3e, 0xb7, 0x22, 0x11, 0xbe, 0x39, 0x41, 0xe6, 0xbc,
  0xd2, 0x95, 0x95, 0xbe, 0xa4, 0xa1, 0x7d, 0xbe, 0xe4, 0x11, 0xb1, 0xbc,
  0xa8, 0xfb, 0xad, 0x3e, 0x82, 0xe9, 0xee, 0xbd, 0xcb, 0x2a, 0x14, 0x3e,
  0x80, 0xc4, 0xf7, 0xbc, 0x61, 0xae, 0x7b, 0xbd, 0xdf, 0xed, 0xac, 0xbe,
  0xa3, 0xd0, 0x2e, 0x3d, 0x8f, 0xc7, 0xf8, 0x3d, 0x29, 0x77, 0x37, 0xbd,
  0xd1, 0xda, 0x87, 0x3e, 0x68, 0x60, 0xb2, 0xbc, 0x90, 0x7f, 0x1b, 0xbe,
  0x8d, 0x69, 0x21, 0xbe, 0xde, 0x48, 0x47, 0x3d, 0xc7, 0xba, 0x9e, 0xbe,
  0x3e, 0x2d, 0x9f, 0x3d, 0xe8, 0xe7, 0xb7, 0x3c, 0x93, 0x9c, 0x46, 0x3d,
  0x79, 0x69, 0xd6, 0x3d, 0xf3, 0x10, 0xfa, 0xbe, 0x3d, 0x0b, 0x44, 0xbe,
  0x49, 0x87, 0x04, 0xbd, 0x09, 0xa1, 0xab, 0xbe, 0xc1, 0x0a, 0x70, 0xbc,
  0xb7, 0x0d, 0x3d, 0xbd, 0x2e, 0x09, 0x02, 0xbd, 0x19, 0xb0, 0xca, 0x3d,
  0xd2, 0xe0, 0xe4, 0xbe, 0x6d, 0x9a, 0x7f, 0xbe, 0x2d, 0x9f, 0xc4, 0x3d,
  0x28, 0xd7, 0x2e, 0xbe, 0xb3, 0x67, 0x29, 0x3f, 0x5e, 0x63, 0x8a, 0x3c,
  0xa5, 0xe3, 0x3c, 0x3e, 0xf1, 0xa7, 0xe6, 0x3b, 0xe3, 0x7f, 0x6f, 0xbe,
  0x09, 0x9c, 0x3e, 0x3e, 0x01, 0x36, 0x16, 0xbd, 0xb6, 0x4d, 0x59, 0x3e,
  0x63, 0x02, 0x96, 0xbd, 0xb1, 0xde, 0x6f, 0x3e, 0x3a, 0x6d, 0xd5, 0xbd,
  0x71, 0xa9, 0x80, 0xbd, 0xf6, 0x2a, 0x87, 0xbd, 0x84, 0xc5, 0x7c, 0xbe,
  0xf2, 0x01, 0xec, 0xbd, 0xb8, 0x48, 0xad, 0x3d, 0xde, 0x27, 0x6a, 0xbe,
  0xd4, 0x63, 0xb0, 0xbc, 0x88, 0xb9, 0x46, 0xbe, 0x9f, 0xb9, 0xa2, 0x3c,
  0x9f, 0x60, 0xf5, 0xbd, 0xc4, 0x5d, 0x23, 0xbe, 0x56, 0x3d, 0xd6, 0xbd,
  0xaf, 0x01, 0x88, 0x3e, 0xed, 0x19, 0x0b, 0xbe, 0x06, 0x5a, 0x8b, 0xbc,
  0x8e, 0x46, 0x66, 0xbe, 0xa7, 0xaa, 0x0a, 0xbc, 0x07, 0x3f, 0x11, 0xbe,
  0x16, 0x69, 0x8f, 0xbd, 0x05, 0x8d, 0x28, 0xbd, 0x1c, 0x48, 0x9e, 0x3d,
  0x27, 0xe0, 0x16, 0x3e, 0x05, 0xf9, 0xe1, 0xbe, 0x96, 0xd6, 0x8f, 0x3d,
  0x05, 0x4c, 0xac, 0xbe, 0xc7, 0x8a, 0xbb, 0x3d, 0x79, 0x77, 0x5e, 0xbe,
  0x55, 0x25, 0xd3, 0x3d, 0x85, 0x36, 0x10, 0xbe, 0xf2, 0x64, 0x91, 0x3e,
  0xd0, 0x20, 0xe8, 0xbe, 0x2c, 0x56, 0x00, 0x3e, 0xf8, 0x91, 0x00, 0x3f,
  0xed, 0x12, 0x3c, 0x3d, 0x0e, 0xdc, 0x61, 0xbe, 0xdb, 0x18, 0x46, 0x3a,
  0xe9, 0x6a, 0x38, 0xbe, 0x21, 0x88, 0x16, 0x3e, 0x88, 0xa8, 0x1b, 0xbf,
  0x7a, 0x28, 0xc7, 0xbd, 0xfb, 0x66, 0xb5, 0x3d, 0xa6, 0x59, 0x0c, 0xbd,
  0x03, 0x37, 0x4b, 0xbf, 0xd5, 0x55, 0x23, 0xbf, 0x17, 0x85, 0x41, 0xbd,
  0xc6, 0x93, 0x28, 0x3e, 0xad, 0x95, 0xb4, 0x3c, 0x81, 0x66, 0xbf, 0x3d,
  0x10, 0xce, 0x32, 0xbe, 0x69, 0x10, 0x85, 0xbe, 0xfe, 0xe6, 0x92, 0xbe,
  0xd6, 0x86, 0xed, 0xbe, 0x85, 0x77, 0x4d, 0xbd, 0x09, 0x41, 0xb3, 0x3e,
  0x9e, 0xef, 0x83, 0x3d, 0xe2, 0xe5, 0x1f, 0x3e, 0x8f, 0x1f, 0xfd, 0xbc,
  0x56, 0xc9, 0xfd, 0xbd, 0x4b, 0x22, 0x40, 0xbc, 0xec, 0xaa, 0xe7, 0xbe,
  0x2e, 0x70, 0xa1, 0xbc, 0x9a, 0xb9, 0xff, 0xbc, 0xb0, 0x61, 0x6d, 0x3e,
  0xb1, 0x98, 0xb6, 0x3e, 0x3d, 0xa0, 0x78, 0xbd, 0x69, 0x85, 0xfe, 0xbd,
  0x53, 0x15, 0xab, 0x3e, 0x9f, 0xd2, 0x8d, 0xbd, 0xd2, 0xc2, 0xa0, 0xbc,
  0xf2, 0xf7, 0x22, 0xbd, 0x84, 0x1f, 0x09, 0xbe, 0x17, 0xfb, 0xff, 0xbc,
  0x30, 0xce, 0x97, 0xbd, 0x0b, 0xd3, 0x67, 0xbc, 0xe7, 0xd4, 0xf4, 0xbc,
  0x4c, 0x53, 0xda, 0xbd, 0xcd, 0x6e, 0x77, 0xbd, 0xa6, 0x8a, 0xb0, 0xbd,
  0xc1, 0xd1, 0x8f, 0xbe, 0x18, 0x01, 0xf7, 0xbd, 0x2e, 0x4c, 0xac, 0x3c,
  0xd1, 0xa5, 0x2d, 0xbe, 0xf9, 0xa6, 0x76, 0xbd, 0x34, 0xa2, 0xbb, 0xbd,
  0xf7, 0x3a, 0xa9, 0x3d, 0x81, 0x52, 0xd9, 0x3e, 0xcc, 0x0b, 0xfb, 0xbd,
  0xac, 0xc6, 0x8d, 0x3f, 0x9c, 0x35, 0x98, 0x3e, 0xc6, 0xd6, 0x8b, 0xbe,
  0xc7, 0x23, 0x09, 0xbe, 0x85, 0x9b, 0x6c, 0xbd, 0xc5, 0x68, 0x09, 0x3d,
  0xdf, 0xea, 0x54, 0xbe, 0xb3, 0x82, 0x43, 0xbd, 0x4d, 0x33, 0x48, 0x3c,
  0x0b, 0x1b, 0x9b, 0xbd, 0xb1, 0x7b, 0x11, 0xbe, 0x56, 0xb8, 0xe4, 0x3a,
  0x5c, 0x41, 0x58, 0xbd, 0xf3, 0x1b, 0x3b, 0x3f, 0x99, 0x05, 0xa5, 0x3e,
  0xed, 0x3d, 0xef, 0xbc, 0x84, 0xd5, 0x74, 0xbc, 0x10, 0x18, 0xcc, 0x3e,
  0x5c, 0xda, 0xae, 0xbd, 0xb6, 0xa7, 0x69, 0xbd, 0x9e, 0xb9, 0xd0, 0xbd,
  0x38, 0x87, 0x39, 0xbd, 0x80, 0xba, 0x63, 0x3e, 0xd5, 0x5a, 0x40, 0xbe,
  0x80, 0x75, 0x4e, 0x3e, 0x34, 0xc2, 0x55, 0xbe, 0x19, 0xc9, 0x21, 0xbe,
  0x0f, 0xed, 0xe0, 0xbd, 0x37, 0x62, 0xa2, 0xbd, 0x89, 0xe0, 0xde, 0x3c,
  0x6c, 0x79, 0xb8, 0xbb, 0x62, 0xa0, 0x70, 0xbd, 0xd6, 0xca, 0x2b, 0x3e,
  0x47, 0x48, 0x1b, 0x3e, 0x8c, 0x98, 0x88, 0x39, 0x37, 0x04, 0x28, 0x3f,
  0x0b, 0xfc, 0x95, 0xbd, 0xfd, 0x35, 0x03, 0xbe, 0xea, 0x75, 0x83, 0xbe,
  0x2a, 0xb2, 0x86, 0xbd, 0x1a, 0xb7, 0xfe, 0x3d, 0xb2, 0x18, 0x86, 0xbe,
  0x33, 0x94, 0x73, 0xbd, 0xda, 0x64, 0x2f, 0x3c, 0x20, 0x6f, 0x06, 0xbd,
  0xe5, 0x53, 0x32, 0xbe, 0x6f, 0x85, 0xac, 0xbc, 0xf2, 0x25, 0x92, 0xbd,
  0xeb, 0x5f, 0x35, 0x3d, 0xfd, 0xf8, 0xb8, 0x3d, 0xd9, 0x3a, 0xb3, 0xbd,
  0x98, 0xa1, 0x1d, 0xbd, 0x69, 0x8e, 0xf3, 0xbe, 0xda, 0xf9, 0xf1, 0x3d,
  0xb4, 0xae, 0x7e, 0xbc, 0x5e, 0xbd, 0xbf, 0x3e, 0x9c, 0xe1, 0x68, 0x3c,
  0x33, 0x3b, 0x41, 0xbe, 0xf7, 0x5a, 0x9e, 0xbd, 0x29, 0xdc, 0xd6, 0x3e,
  0xd6, 0xdd, 0xe3, 0xbe, 0xeb, 0xd1, 0x2b, 0xbe, 0x58, 0x71, 0x93, 0x3d,
  0x0d, 0xe8, 0x3e, 0x3e, 0xed, 0xb1, 0x20, 0x3e, 0xcc, 0xf5, 0x81, 0xbd,
  0xc1, 0x7d, 0xde, 0xbd, 0xf8, 0x65, 0x14, 0xbe, 0x48, 0x60, 0xcd, 0xbe,
  0x10, 0xba, 0xd1, 0x3c, 0xb4, 0x7c, 0x93, 0x3d, 0xee, 0x93, 0xab, 0x3d,
  0x0c, 0xf3, 0x04, 0x3e, 0x57, 0xf8, 0xf3, 0x3c, 0xcf, 0xad, 0xaa, 0xbd,
  0x98, 0x24, 0xaf, 0xbd, 0x6a, 0xdf, 0xff, 0xff, 0x10, 0x00, 0x00, 0x00,
  0x08, 0x00, 0x00, 0x00, 0x1c, 0x00, 0x00, 0x00, 0x38, 0x00, 0x00, 0x00,
  0x04, 0x00, 0x00, 0x00, 0x10, 0x00, 0x00, 0x00, 0x03, 0x00, 0x00, 0x00,
  0x01, 0x00, 0x00, 0x00, 0x08, 0x00, 0x00, 0x00, 0x1a, 0x00, 0x00, 0x00,
  0x73, 0x65, 0x71, 0x75, 0x65, 0x6e, 0x74, 0x69, 0x61, 0x6c, 0x2f, 0x63,
  0x6f, 0x6e, 0x76, 0x32, 0x64, 0x5f, 0x31, 0x2f, 0x43, 0x6f, 0x6e, 0x76,
  0x32, 0x44, 0x00, 0x00, 0x64, 0xdf, 0xff, 0xff, 0x5a, 0xe0, 0xff, 0xff,
  0x04, 0x00, 0x00, 0x00, 0x20, 0x01, 0x00, 0x00, 0x23, 0x81, 0x22, 0xbb,
  0xc5, 0x20, 0x45, 0x3d, 0x5e, 0x41, 0xe4, 0x3d, 0x02, 0x41, 0x99, 0x3c,
  0x92, 0xef, 0x42, 0xbc, 0xb8, 0x08, 0x95, 0x3d, 0x9c, 0x26, 0x84, 0x3c,
  0x74, 0x88, 0x64, 0xbc, 0xdf, 0x0f, 0x02, 0x3d, 0x08, 0xd3, 0x24, 0x3e,
  0x4b, 0x11, 0x54, 0xbd, 0x03, 0x67, 0xcc, 0xbc, 0xcd, 0xcf, 0xc6, 0x3e,
  0x36, 0xfa, 0xad, 0xbe, 0xa6, 0x01, 0x81, 0x3e, 0xe7, 0x04, 0x87, 0xbd,
  0x33, 0x57, 0x15, 0x3e, 0x5f, 0xdc, 0x9b, 0xbe, 0x25, 0xef, 0xb0, 0xbe,
  0x1d, 0xff, 0xea, 0x3e, 0xf2, 0x49, 0x8b, 0x3d, 0x0f, 0x0b, 0x9b, 0x3e,
  0x1c, 0xf8, 0x69, 0xbe, 0xd9, 0xbe, 0x6b, 0xbe, 0x17, 0x09, 0x51, 0x3d,
  0xea, 0x2a, 0x68, 0xbe, 0x53, 0x4a, 0xcf, 0x3d, 0x1f, 0xf4, 0x38, 0x3f,
  0xf6, 0x11, 0x35, 0xbe, 0x6e, 0x02, 0xf2, 0xbd, 0xb8, 0xe0, 0x29, 0xbf,
  0x63, 0x73, 0xae, 0xbe, 0x09, 0x06, 0x2b, 0xbe, 0x41, 0x71, 0x56, 0xbe,
  0xe2, 0xd1, 0xf3, 0x3c, 0x5b, 0xc2, 0x77, 0xbc, 0x51, 0x67, 0xe1, 0x3e,
  0x29, 0x7a, 0x6c, 0xbe, 0x1a, 0xac, 0xa2, 0xbd, 0xaf, 0x61, 0xb8, 0xbc,
  0xd8, 0x42, 0x0d, 0xbd, 0x02, 0x73, 0x90, 0xbe, 0xf9, 0xdf, 0xc9, 0xbe,
  0x90, 0x3a, 0x0f, 0x3e, 0x69, 0x43, 0xa2, 0x3e, 0x28, 0x7b, 0x8a, 0xbe,
  0xfc, 0xb5, 0x57, 0x3e, 0x15, 0xc9, 0xcf, 0x3d, 0x98, 0x2d, 0x9d, 0xbe,
  0x3d, 0x97, 0x29, 0x3d, 0x22, 0xa9, 0x05, 0x3c, 0x17, 0x1a, 0x12, 0x3f,
  0x6b, 0x16, 0x8b, 0xbe, 0x7d, 0x5d, 0x0a, 0xbe, 0x3d, 0x63, 0xf2, 0x3b,
  0xb8, 0xad, 0x8b, 0xbd, 0xb9, 0x71, 0x82, 0xbd, 0x9e, 0xc9, 0xe2, 0xbb,
  0x8d, 0x85, 0x61, 0xbc, 0xf1, 0x8d, 0xe1, 0xbd, 0xc3, 0x00, 0x02, 0xbd,
  0xb4, 0x6f, 0xff, 0x3c, 0x8f, 0x1d, 0x7a, 0xbe, 0x50, 0x9e, 0x6d, 0xbe,
  0xc8, 0x77, 0x87, 0xbe, 0xae, 0x02, 0x18, 0xbe, 0xa9, 0xa3, 0xce, 0xbe,
  0xf2, 0x0c, 0x66, 0xbd, 0xde, 0x70, 0x4a, 0xbd, 0x16, 0xbb, 0x4c, 0xbe,
  0xdc, 0x0b, 0xf0, 0xbc, 0x63, 0x1b, 0xba, 0xbb, 0xe2, 0xe0, 0xff, 0xff,
  0x10, 0x00, 0x00, 0x00, 0x07, 0x00, 0x00, 0x00, 0x1c, 0x00, 0x00, 0x00,
  0x38, 0x00, 0x00, 0x00, 0x04, 0x00, 0x00, 0x00, 0x08, 0x00, 0x00, 0x00,
  0x03, 0x00, 0x00, 0x00, 0x03, 0x00, 0x00, 0x00, 0x01, 0x00, 0x00, 0x00,
  0x18, 0x00, 0x00, 0x00, 0x73, 0x65, 0x71, 0x75, 0x65, 0x6e, 0x74, 0x69,
  0x61, 0x6c, 0x2f, 0x63, 0x6f, 0x6e, 0x76, 0x32, 0x64, 0x2f, 0x43, 0x6f,
  0x6e, 0x76, 0x32, 0x44, 0x00, 0x00, 0x00, 0x00, 0xdc, 0xe0, 0xff, 0xff,
  0xd2, 0xe1, 0xff, 0xff, 0x04, 0x00, 0x00, 0x00, 0xc0, 0x00, 0x00, 0x00,
  0x71, 0x84, 0x53, 0xbe, 0x91, 0x08, 0x6e, 0xbb, 0x0f, 0x83, 0x68, 0x3e,
  0xf1, 0xdf, 0x9b, 0x3d, 0x59, 0xde, 0x14, 0x3e, 0xb0, 0xd0, 0x19, 0xbe,
  0x8d, 0xa8, 0x90, 0x3e, 0x95, 0x42, 0x83, 0xbd, 0x7a, 0x1c, 0x1d, 0xbc,
  0xd4, 0xef, 0x0f, 0xbe, 0x9e, 0x16, 0x55, 0x3e, 0x4e, 0xa4, 0x56, 0x3d,
  0x14, 0x59, 0x9e, 0x3e, 0x92, 0x5c, 0x24, 0xbe, 0xa0, 0x13, 0xa4, 0x3e,
  0xe4, 0x89, 0xcd, 0x3e, 0x6f, 0x80, 0x81, 0xbe, 0x86, 0xa9, 0xb0, 0x3c,
  0xc1, 0x98, 0x99, 0x3e, 0x22, 0xcb, 0x60, 0x3e, 0x6b, 0x18, 0x73, 0x3d,
  0x25, 0x6c, 0x60, 0x3e, 0x90, 0x5e, 0x9b, 0x3e, 0xc8, 0x38, 0xff, 0xbc,
  0x52, 0x86, 0x41, 0xbe, 0x99, 0xa8, 0x05, 0xbe, 0xf0, 0x51, 0x19, 0x3e,
  0xed, 0xbc, 0x1a, 0x3e, 0xe8, 0x87, 0xfb, 0x3d, 0xa7, 0xac, 0x0d, 0xbf,
  0x97, 0x26, 0x38, 0x3e, 0xe7, 0xaa, 0x84, 0xbd, 0x38, 0x9d, 0x9d, 0xbd,
  0x0f, 0x43, 0x6c, 0xbe, 0xc6, 0x09, 0x72, 0x3e, 0x10, 0xa4, 0xcf, 0x3d,
  0x89, 0xe2, 0x87, 0x3e, 0xdb, 0xda, 0xd5, 0x3d, 0x0c, 0xa0, 0xaa, 0x3e,
  0xa0, 0x34, 0x9e, 0xbd, 0xa0, 0x94, 0x26, 0xbe, 0x05, 0xf1, 0xc8, 0xbd,
  0xef, 0x38, 0x0b, 0x3e, 0x57, 0x89, 0xff, 0x3d, 0xec, 0x2b, 0xb5, 0x3e,
  0x0c, 0x62, 0x5a, 0xbe, 0x4e, 0x82, 0xb4, 0x3e, 0xce, 0x0a, 0x92, 0x3e,
  0xfa, 0xe1, 0xff, 0xff, 0x10, 0x00, 0x00, 0x00, 0x06, 0x00, 0x00, 0x00,
  0x14, 0x00, 0x00, 0x00, 0x30, 0x00, 0x00, 0x00, 0x02, 0x00, 0x00, 0x00,
  0x03, 0x00, 0x00, 0x00, 0x10, 0x00, 0x00, 0x00, 0x19, 0x00, 0x00, 0x00,
  0x73, 0x65, 0x71, 0x75, 0x65, 0x6e, 0x74, 0x69, 0x61, 0x6c, 0x2f, 0x64,
  0x65, 0x6e, 0x73, 0x65, 0x5f, 0x31, 0x2f, 0x4d, 0x61, 0x74, 0x4d, 0x75,
  0x6c, 0x00, 0x00, 0x00, 0xec, 0xe1, 0xff, 0xff, 0xe2, 0xe2, 0xff, 0xff,
  0x04, 0x00, 0x00, 0x00, 0x00, 0x1c, 0x00, 0x00, 0xe8, 0x2a, 0x66, 0xbd,
  0x39, 0x13, 0x1f, 0x3e, 0x18, 0xa6, 0x02, 0xbe, 0x19, 0x63, 0x33, 0xbd,
  0x5b, 0x1a, 0xb4, 0xbd, 0x80, 0x42, 0xb5, 0x3d, 0x70, 0x94, 0x05, 0xbe,
  0x64, 0xab, 0xbd, 0x3e, 0x98, 0x22, 0xfe, 0x3c, 0x75, 0xa4, 0x11, 0x3f,
  0xab, 0xbb, 0x96, 0xbd, 0x5d, 0xcd, 0xcb, 0x3c, 0x0e, 0xd7, 0x1d, 0xbe,
  0x2c, 0x52, 0x01, 0xbe, 0xa2, 0x8c, 0x74, 0x3d, 0x4b, 0xad, 0x6f, 0x3d,
  0x7c, 0x3a, 0xef, 0xbe, 0xef, 0xa4, 0xba, 0x3c, 0x9c, 0x9a, 0x85, 0x3e,
  0xa0, 0x59, 0x1d, 0x3e, 0xc6, 0x07, 0xb1, 0xbe, 0xf8, 0xcb, 0x47, 0xbe,
  0xf6, 0x2c, 0xd7, 0xbe, 0x28, 0xfb, 0xed, 0x3e, 0xe0, 0x92, 0xb8, 0x3e,
  0x2e, 0xc7, 0xa9, 0x3e, 0x46, 0xd2, 0x0e, 0x3e, 0xd7, 0x3c, 0x3d, 0xbe,
  0x4a, 0x7a, 0xe6, 0xbd, 0x43, 0xe6, 0x64, 0xbe, 0x16, 0x67, 0x78, 0xbe,
  0x44, 0x6d, 0x91, 0xbd, 0xac, 0x11, 0xf3, 0xbe, 0x87, 0xd4, 0x00, 0xbc,
  0x70, 0x2c, 0x62, 0x3e, 0x9d, 0x92, 0xfe, 0x3d, 0x08, 0xd6, 0xc8, 0xbd,
  0x4c, 0x15, 0x0c, 0xbe, 0x98, 0xca, 0xce, 0xbe, 0x0c, 0x71, 0xc3, 0x3e,
  0xef, 0x78, 0x89, 0x3e, 0x9c, 0xdd, 0x89, 0x3e, 0xad, 0xf7, 0xfc, 0x3d,
  0xae, 0xe5, 0x3d, 0x3e, 0x2b, 0x95, 0x13, 0xbe, 0xef, 0xed, 0xe6, 0xbd,
  0x48, 0x43, 0x0a, 0xbf, 0x4f, 0x05, 0x8e, 0x3b, 0x1b, 0x48, 0xc7, 0x3d,
  0x3d, 0x7c, 0x70, 0xbd, 0x8d, 0x90, 0xcf, 0x3e, 0x56, 0x44, 0xf8, 0x3d,
  0x01, 0x10, 0x75, 0xbe, 0x72, 0x45, 0xe9, 0xbd, 0x44, 0xdb, 0x50, 0x3c,
  0x76, 0x9e, 0xcd, 0x3e, 0xf0, 0x7a, 0xbe, 0x3d, 0xbc, 0x5e, 0x46, 0x3e,
  0xb9, 0x6a, 0xcc, 0x3c, 0xad, 0x66, 0xc1, 0xbd, 0x87, 0xd1, 0x84, 0xbd,
  0x6e, 0xe7, 0x08, 0xbd, 0x7b, 0x67, 0x8a, 0xbd, 0xce, 0x1d, 0xbd, 0x3d,
  0x5a, 0x60, 0xa9, 0x3e, 0xe0, 0x2f, 0x17, 0x3d, 0xae, 0x00, 0x20, 0xbe,
  0xcb, 0x04, 0x70, 0x3c, 0xd2, 0xce, 0x03, 0xbe, 0x68, 0x7b, 0xee, 0x3d,
  0x18, 0x3b, 0x4b, 0xbb, 0xc4, 0xca, 0x0f, 0x3e, 0x20, 0xbc, 0x1c, 0xbe,
  0xb8, 0xf8, 0xd1, 0x3d, 0xd4, 0x3a, 0x09, 0xbe, 0x52, 0xc0, 0x3a, 0xbe,
  0xaf, 0x89, 0x09, 0x3d, 0xce, 0x1f, 0xf6, 0x3c, 0x4f, 0xa8, 0xb3, 0xbd,
  0xd9, 0x29, 0x8c, 0x3d, 0x16, 0x01, 0xba, 0x3e, 0xbd, 0xcd, 0x42, 0x3e,
  0x71, 0x63, 0xc0, 0xbe, 0x75, 0x10, 0x7a, 0xbe, 0x53, 0x8d, 0x1e, 0xbe,
  0xc2, 0xbc, 0x69, 0x3d, 0x48, 0xa9, 0x3d, 0xbe, 0x64, 0xd2, 0x9c, 0x3e,
  0x1a, 0xa9, 0xae, 0xbe, 0x1b, 0xda, 0x0c, 0x3f, 0x26, 0xbf, 0x47, 0xbe,
  0x89, 0xa6, 0x47, 0xbd, 0x72, 0x6c, 0x61, 0xbd, 0xbb, 0xe4, 0xd8, 0x3d,
  0xbf, 0x7e, 0x67, 0xbd, 0x8a, 0x7c, 0x25, 0xbe, 0x53, 0xf2, 0x01, 0x3e,
  0x44, 0x68, 0x39, 0x3d, 0x44, 0x0a, 0xaf, 0xbe, 0x33, 0xf4, 0x0a, 0xbe,
  0xa2, 0x95, 0xd4, 0x3d, 0xee, 0x5c, 0x06, 0x3d, 0xc0, 0x3a, 0x1a, 0xbe,
  0xf8, 0x6d, 0xa4, 0x3d, 0xcd, 0x3b, 0xa4, 0xbe, 0x1a, 0x59, 0x37, 0x3f,
  0xae, 0xab, 0x5f, 0xbe, 0x8a, 0xbb, 0x1e, 0xbe, 0xa6, 0x7c, 0xad, 0xbe,
  0x54, 0x95, 0xf6, 0xbd, 0x34, 0xba, 0x16, 0xbd, 0x98, 0xe2, 0xd8, 0xbd,
  0xcf, 0xca, 0x81, 0xbd, 0x64, 0x73, 0x6f, 0x3d, 0xbb, 0x66, 0xc9, 0x3d,
  0xd6, 0xf1, 0xf2, 0xbd, 0xd5, 0xb7, 0xaa, 0x3f, 0x29, 0x2d, 0xc3, 0x3a,
  0x36, 0x09, 0x8d, 0xbe, 0x35, 0x93, 0x61, 0x3d, 0x54, 0xa7, 0xd6, 0xbd,
  0x38, 0xb3, 0x82, 0xbe, 0x0e, 0x0c, 0x7f, 0xbd, 0xcd, 0xce, 0xf9, 0x3d,
  0xf0, 0x55, 0x96, 0xbe, 0x1e, 0x47, 0x41, 0xbd, 0x50, 0x4e, 0x99, 0x3c,
  0x89, 0xa2, 0xa0, 0x3d, 0x87, 0xb0, 0x81, 0xbd, 0x94, 0xbe, 0x5b, 0x3e,
  0x64, 0x54, 0x9d, 0xbe, 0x2f, 0x9f, 0xcd, 0xbe, 0xca, 0xc4, 0xe1, 0x3f,
  0x63, 0xea, 0x40, 0xbd, 0x2e, 0xb2, 0x7d, 0xbe, 0xf2, 0xb3, 0x5b, 0x3d,
  0xb5, 0x4d, 0x39, 0x3c, 0x3f, 0x15, 0xd5, 0xbd, 0x21, 0xc0, 0xf3, 0xbe,
  0x1e, 0x02, 0xc0, 0xbd, 0x35, 0x49, 0x59, 0x3b, 0x6b, 0x70, 0xcc, 0xbe,
  0x9f, 0x4e, 0xa1, 0xbe, 0xb6, 0xe5, 0x2e, 0xbe, 0x83, 0x0c, 0x9e, 0xbd,
  0xbe, 0x26, 0x9a, 0x3e, 0x05, 0xb5, 0x0b, 0xbe, 0xa7, 0x9b, 0xad, 0xbe,
  0xad, 0xe5, 0xc2, 0x3f, 0x52, 0xbe, 0xf7, 0x3b, 0xdd, 0xfd, 0x8c, 0xbe,
  0xd3, 0x9c, 0xef, 0x3e, 0x3a, 0x0d, 0x04, 0xbe, 0xb7, 0xa1, 0xaa, 0xbe,
  0x22, 0xcc, 0xba, 0xbe, 0xb5, 0x0c, 0x12, 0xbe, 0xd8, 0x54, 0x78, 0xbe,
  0xb2, 0x57, 0xac, 0xbe, 0xdc, 0x3b, 0xab, 0xbe, 0xf9, 0x55, 0xe3, 0xbd,
  0x84, 0x2e, 0x99, 0xbd, 0xab, 0x68, 0x5a, 0x3d, 0x56, 0x5b, 0xc4, 0x3d,
  0xe3, 0x39, 0x59, 0xbe, 0x21, 0x04, 0xd1, 0x3f, 0x82, 0xb3, 0x66, 0xbd,
  0xe1, 0x0e, 0xd2, 0xbd, 0x5c, 0x26, 0x2d, 0x3d, 0x1f, 0x8c, 0xc4, 0x3c,
  0xb3, 0x71, 0x50, 0xbe, 0x8d, 0x65, 0x3a, 0xbe, 0x35, 0xaf, 0x08, 0xbe,
  0xaa, 0x5b, 0x1f, 0xbe, 0x4d, 0xed, 0xbd, 0xbe, 0xac, 0x07, 0x03, 0xbe,
  0x5f, 0xf4, 0xf4, 0xbc, 0x5b, 0x79, 0xdf, 0xbc, 0x1b, 0x3c, 0x1d, 0x3d,
  0x1c, 0x0b, 0xa0, 0x3d, 0x74, 0x3e, 0x93, 0x3d, 0x75, 0x93, 0xdb, 0x3f,
  0xea, 0xb3, 0xc3, 0xbd, 0x1c, 0x2a, 0xa0, 0xbd, 0xf5, 0x47, 0x92, 0xbe,
  0x3a, 0xc3, 0x41, 0xbe, 0xa2, 0x5a, 0x37, 0xbe, 0xb8, 0x04, 0x5b, 0xbe,
  0x96, 0xb8, 0xce, 0xbd, 0x05, 0xca, 0xce, 0xbd, 0xde, 0x6d, 0x42, 0x3d,
  0xf7, 0x3c, 0xf0, 0xbd, 0x06, 0x93, 0xf7, 0xbd, 0x7a, 0xcb, 0x03, 0x3d,
  0x8a, 0xdc, 0x27, 0xbe, 0x36, 0xeb, 0x24, 0xbe, 0xda, 0x5e, 0x9d, 0x3e,
  0x6d, 0xd2, 0xcb, 0x3f, 0x68, 0x71, 0xf5, 0x3c, 0x28, 0xd1, 0x4c, 0x3d,
  0xdb, 0x07, 0x08, 0xbd, 0x9c, 0xb7, 0xdc, 0xbd, 0x77, 0x94, 0xc6, 0xbe,
  0xf0, 0xea, 0x50, 0xbe, 0x2f, 0x49, 0x05, 0xbd, 0x01, 0x7d, 0x4b, 0xbe,
  0x06, 0x1c, 0x5e, 0xbd, 0x65, 0x0f, 0xf1, 0x3c, 0x85, 0x9f, 0x6e, 0xbd,
  0x6d, 0xa6, 0x0e, 0x3e, 0xd8, 0x48, 0xdd, 0xbd, 0x81, 0x95, 0x99, 0x3d,
  0xaa, 0xba, 0x4e, 0x3e, 0x6c, 0x6c, 0x83, 0x3f, 0x56, 0x85, 0x72, 0x38,
  0xde, 0x28, 0x8d, 0x3e, 0xe9, 0x16, 0xc6, 0xbe, 0xed, 0x35, 0x4e, 0x3d,
  0xb7, 0x98, 0xae, 0xbe, 0x07, 0x8e, 0x92, 0x3a, 0x3c, 0x40, 0x06, 0x3e,
  0xf7, 0x43, 0x0e, 0xbe, 0x03, 0x8f, 0x9b, 0x3e, 0x99, 0xe4, 0xdb, 0x3d,
  0x7d, 0x4b, 0x94, 0x3d, 0x5e, 0x04, 0xb8, 0xbd, 0x02, 0x4b, 0xcf, 0xbd,
  0x87, 0x64, 0xc9, 0xbd, 0xea, 0xb2, 0x67, 0xbe, 0x2b, 0xc2, 0x0d, 0xbd,
  0x1b, 0x04, 0x03, 0xbe, 0x36, 0x5b, 0xae, 0xbe, 0xc2, 0x3c, 0xd6, 0x3d,
  0x41, 0x7c, 0x33, 0x3e, 0x73, 0xf0, 0x1b, 0xbe, 0xef, 0x85, 0x6e, 0xbe,
  0xf0, 0xdc, 0xd3, 0xbd, 0x9b, 0x32, 0xe3, 0x3b, 0x56, 0xb1, 0x98, 0xbe,
  0x37, 0x92, 0x6a, 0xbe, 0xe2, 0x09, 0x73, 0xbb, 0x76, 0x2d, 0x92, 0xbe,
  0xc5, 0x12, 0x0c, 0x3e, 0x86, 0xb0, 0x3c, 0xbe, 0x76, 0x97, 0x94, 0xbe,
  0x2c, 0x51, 0x20, 0xbe, 0x0f, 0x03, 0x04, 0x3c, 0x7b, 0xb1, 0xac, 0xbe,
  0x3e, 0x2e, 0x87, 0x3e, 0xe5, 0x13, 0x07, 0xbe, 0x6c, 0x59, 0x1e, 0x3e,
  0xc5, 0x9b, 0xfc, 0xbd, 0x3e, 0x78, 0x1c, 0xbe, 0x7d, 0x03, 0x0d, 0xbe,
  0xf1, 0x74, 0x0c, 0xbe, 0x37, 0xd1, 0x45, 0xbe, 0x2b, 0xc0, 0xd4, 0xbd,
  0x89, 0x1b, 0xce, 0xbd, 0x50, 0xf1, 0x88, 0x3e, 0x72, 0x87, 0xb0, 0xbe,
  0xff, 0x78, 0xb4, 0xbe, 0x13, 0xdc, 0x32, 0xbe, 0xd5, 0x4e, 0xcb, 0xbc,
  0xab, 0xac, 0x1b, 0xbe, 0x5f, 0xf5, 0x21, 0x3e, 0x92, 0x53, 0x95, 0xbe,
  0xcc, 0x14, 0x4b, 0xbd, 0x81, 0x85, 0x8b, 0x3d, 0xa9, 0xf8, 0x0a, 0xbe,
  0xd5, 0xdd, 0xc9, 0xbd, 0x32, 0xd0, 0xe5, 0xbd, 0x9e, 0x83, 0x85, 0xbe,
  0xce, 0xda, 0x08, 0xbe, 0xd6, 0xad, 0x9f, 0x3c, 0xf1, 0x30, 0x5b, 0xbd,
  0x95, 0x89, 0x4f, 0xbe, 0x0a, 0xc7, 0xbd, 0x3d, 0xe3, 0x1d, 0xa0, 0x3d,
  0x8b, 0x46, 0xd3, 0xbc, 0x9e, 0xa4, 0x3d, 0x3d, 0xc2, 0x2d, 0x4f, 0xbd,
  0xd0, 0x45, 0x50, 0xbe, 0x60, 0x64, 0x18, 0x3d, 0x8a, 0x35, 0xde, 0xbc,
  0x22, 0x0e, 0x81, 0xbc, 0x0f, 0x4e, 0x01, 0xbe, 0x29, 0x28, 0x0d, 0xbe,
  0x3a, 0xbb, 0x4b, 0x3d, 0x2d, 0xd1, 0x78, 0xbd, 0xfb, 0xf5, 0xc2, 0x3d,
  0xa9, 0xce, 0x1a, 0xbe, 0x9e, 0x4a, 0x86, 0xbe, 0x3b, 0xbe, 0x88, 0x3e,
  0xd9, 0xf6, 0x01, 0xbe, 0xff, 0x64, 0xd4, 0xbb, 0x65, 0xf9, 0x90, 0x3e,
  0xd6, 0x1e, 0x1a, 0xbe, 0x07, 0x43, 0x9b, 0xbe, 0xf8, 0xac, 0x21, 0x3d,
  0x1c, 0xda, 0xa3, 0xbd, 0x55, 0x05, 0x28, 0x3c, 0xc2, 0xf3, 0xf5, 0xbd,
  0x77, 0xb3, 0xd4, 0xbd, 0x47, 0xbb, 0x58, 0xbd, 0xab, 0x5c, 0x71, 0x3d,
  0x21, 0x62, 0xe9, 0x3d, 0x51, 0xec, 0x2c, 0xbe, 0x1f, 0xb1, 0xa1, 0xbe,
  0x63, 0xf4, 0xab, 0x3e, 0xa0, 0xfe, 0x10, 0xbe, 0x21, 0xa7, 0xa1, 0x3d,
  0xa2, 0x1c, 0x2e, 0x3e, 0x15, 0x1f, 0x15, 0xbd, 0xbc, 0x0b, 0xb7, 0x3d,
  0xba, 0x7a, 0xc8, 0x3d, 0x92, 0x4e, 0x11, 0xbe, 0xd2, 0x02, 0x7c, 0xbd,
  0xab, 0xb4, 0xf9, 0xbd, 0x70, 0x34, 0x83, 0xbd, 0xc5, 0xc9, 0xb5, 0x3d,
  0x8b, 0xde, 0x1a, 0x3e, 0xf1, 0x15, 0x6b, 0xbe, 0x3f, 0x54, 0x11, 0xbe,
  0x5a, 0x76, 0x52, 0xbe, 0xa0, 0xaa, 0xf4, 0xbd, 0x94, 0x63, 0x16, 0x3d,
  0x28, 0x6a, 0xd6, 0xbd, 0x98, 0x92, 0x58, 0x3b, 0x6b, 0x1f, 0x80, 0xbd,
  0x0a, 0x16, 0x0d, 0xbe, 0xb0, 0x84, 0x0c, 0x3e, 0x43, 0xcd, 0x07, 0xbe,
  0x87, 0x61, 0xa5, 0x3c, 0xac, 0x55, 0x92, 0xbe, 0x19, 0x5f, 0x5c, 0xbe,
  0x8e, 0xcd, 0x68, 0x3e, 0xd2, 0xc8, 0x92, 0x3c, 0x57, 0xd7, 0xa1, 0xbd,
  0x97, 0x1a, 0x25, 0x3d, 0x6d, 0xaf, 0x47, 0xbc, 0x0a, 0xfe, 0x97, 0xbe,
  0xb7, 0x96, 0xe8, 0xbc, 0xf5, 0x38, 0xab, 0x3b, 0xdd, 0x53, 0x52, 0x3c,
  0xef, 0x7e, 0xde, 0x3c, 0x10, 0xb9, 0xcf, 0xbd, 0xab, 0x26, 0x93, 0xbd,
  0x56, 0x2b, 0xcd, 0xbe, 0xa5, 0x68, 0x5f, 0xbd, 0x41, 0x24, 0x6f, 0xbd,
  0x83, 0x75, 0xe4, 0x3c, 0xa6, 0xfd, 0xfc, 0xbd, 0x71, 0x52, 0x0a, 0x3c,
  0x84, 0x84, 0x3b, 0x3c, 0x03, 0x97, 0xcc, 0x3e, 0x39, 0x89, 0x61, 0xbe,
  0x27, 0x5c, 0x20, 0xbf, 0x99, 0x51, 0x1f, 0xbe, 0x26, 0xd8, 0x07, 0xbd,
  0x2b, 0xf5, 0x9c, 0xbe, 0xd3, 0x0f, 0x0c, 0xbe, 0x4e, 0xa3, 0x19, 0xbf,
  0x15, 0x96, 0x4c, 0xbe, 0x44, 0x49, 0x60, 0xbf, 0x45, 0x37, 0x8a, 0xbe,
  0xcd, 0x90, 0x0a, 0xbe, 0xff, 0xde, 0x15, 0xbf, 0xea, 0x8b, 0xbb, 0xbe,
  0x0a, 0xee, 0xc6, 0xbc, 0x53, 0x0d, 0x81, 0x3c, 0xf5, 0x2f, 0xa8, 0x3e,
  0x1a, 0xb2, 0xdc, 0xbe, 0xba, 0x26, 0x29, 0xbf, 0x99, 0xbe, 0x1a, 0xbe,
  0xd8, 0x76, 0x9f, 0x3c, 0xf2, 0xe4, 0x3c, 0xbe, 0x7a, 0x9a, 0x00, 0xbe,
  0xe8, 0x75, 0x39, 0xbf, 0x91, 0xf2, 0x22, 0x3d, 0xf6, 0x11, 0x79, 0xbf,
  0xcf, 0x00, 0x43, 0xbe, 0x32, 0x26, 0xa5, 0xbe, 0x34, 0xb4, 0xe1, 0xbe,
  0x44, 0x87, 0xb7, 0xbe, 0x48, 0xdd, 0x3c, 0xbd, 0x49, 0xa2, 0xd9, 0xbb,
  0x1e, 0x4e, 0x5c, 0x3c, 0x6f, 0x84, 0x19, 0xbe, 0x63, 0x6e, 0xa0, 0xbe,
  0x12, 0x7d, 0x43, 0xbe, 0x3e, 0xe6, 0x97, 0xbd, 0xee, 0xa6, 0xa2, 0xbd,
  0x57, 0xd6, 0x90, 0x3d, 0xf1, 0x21, 0x88, 0xbe, 0x38, 0xc0, 0x86, 0x3d,
  0x6e, 0x88, 0xf8, 0xbe, 0x45, 0xf4, 0xa0, 0xbd, 0x1d, 0xed, 0x3d, 0xbe,
  0xfa, 0x5a, 0xf3, 0xbd, 0x10, 0x65, 0x9b, 0xbe, 0xdb, 0x86, 0x2d, 0xbe,
  0xdc, 0xef, 0xa8, 0x3d, 0x2b, 0x7e, 0x80, 0xbe, 0xc6, 0xb6, 0x8c, 0xbe,
  0xa8, 0x1c, 0x5d, 0x3e, 0xe9, 0x48, 0xe2, 0x3d, 0x38, 0xfc, 0x6b, 0x3c,
  0xd4, 0x16, 0x6d, 0x3d, 0xb1, 0x86, 0xdc, 0x3d, 0x30, 0x4c, 0xde, 0xbe,
  0xa8, 0x5d, 0x89, 0xbe, 0x4e, 0x09, 0xf6, 0xbe, 0xad, 0x7d, 0x70, 0x3d,
  0xc9, 0xaf, 0x56, 0xbe, 0xe4, 0x7e, 0x3b, 0x3e, 0x31, 0xba, 0x18, 0xbe,
  0xac, 0x51, 0x0f, 0xbd, 0x99, 0x6c, 0xbb, 0x3c, 0x84, 0xa2, 0x05, 0xbe,
  0x36, 0xaf, 0xda, 0xbe, 0xf7, 0x56, 0x6e, 0x3e, 0xd2, 0x53, 0xdc, 0xbd,
  0x67, 0xad, 0x66, 0xbd, 0xab, 0x55, 0x7e, 0x3d, 0x04, 0xfa, 0x92, 0xbe,
  0x1d, 0x62, 0xe6, 0xbe, 0x1f, 0x19, 0x1e, 0xbe, 0x75, 0x0f, 0xe2, 0xbe,
  0x6a, 0x9d, 0x73, 0x3e, 0xfe, 0xfd, 0x9b, 0xbe, 0xdf, 0x67, 0xe0, 0xbc,
  0xc4, 0x3e, 0x13, 0x3e, 0x53, 0xee, 0xae, 0xbb, 0xe6, 0x19, 0x8b, 0x3e,
  0x6f, 0xc7, 0xfb, 0xbe, 0x01, 0x46, 0x77, 0xbc, 0x71, 0x53, 0xb8, 0x3e,
  0x12, 0xbd, 0x0d, 0xbd, 0x6f, 0x78, 0xb5, 0xbd, 0x4a, 0x77, 0x1f, 0x3e,
  0x6e, 0xf8, 0x6e, 0x3c, 0x90, 0xbd, 0xe3, 0xbd, 0x83, 0xb2, 0xd9, 0x3d,
  0x76, 0xd4, 0x47, 0xbe, 0x84, 0x34, 0x0c, 0x3e, 0x83, 0x0c, 0x18, 0xbd,
  0xd3, 0x65, 0x85, 0x3d, 0x5d, 0x61, 0x0a, 0x3e, 0x48, 0xc4, 0x77, 0x3d,
  0xed, 0x39, 0x77, 0x3d, 0x9c, 0x0f, 0x66, 0x3e, 0xdc, 0xa8, 0x41, 0xbe,
  0x37, 0x15, 0x83, 0x3d, 0x51, 0xbc, 0x17, 0xbe, 0x58, 0x86, 0xf0, 0x3d,
  0x8c, 0xa7, 0x19, 0xbd, 0xb0, 0x83, 0x95, 0x3e, 0x08, 0x19, 0x8d, 0xbe,
  0x83, 0xb2, 0xa0, 0x3e, 0x4e, 0xc3, 0x28, 0xbe, 0x82, 0x89, 0xed, 0xbb,
  0x61, 0xbd, 0x81, 0x3d, 0xfe, 0x6f, 0x0c, 0xbe, 0xc3, 0x6f, 0x3b, 0x3d,
  0x7f, 0x08, 0x2e, 0xbd, 0x3d, 0x38, 0x5a, 0x3e, 0xf9, 0x56, 0x53, 0x3e,
  0x61, 0x5b, 0x2a, 0xbe, 0x0c, 0x87, 0x2e, 0xbe, 0xc8, 0xe3, 0x08, 0xbe,
  0xaa, 0xb4, 0x47, 0x3a, 0x31, 0x1c, 0x41, 0xbe, 0xbe, 0x92, 0x89, 0x3e,
  0x2f, 0x24, 0xab, 0xbe, 0xac, 0xa8, 0xa0, 0x3e, 0xe3, 0x38, 0x1b, 0xbe,
  0x00, 0xe8, 0xbc, 0xbd, 0x67, 0x58, 0x34, 0x3e, 0x19, 0x71, 0x22, 0xbd,
  0x70, 0xf8, 0x6e, 0xbd, 0x54, 0x97, 0x86, 0xbd, 0xc5, 0x68, 0x6f, 0x3e,
  0xca, 0xab, 0x39, 0xbd, 0x28, 0xed, 0x20, 0xbe, 0x86, 0x7b, 0xc7, 0xbe,
  0x35, 0x79, 0xa5, 0xbd, 0x1e, 0xd4, 0x8b, 0x3a, 0x96, 0xaf, 0x53, 0xbd,
  0x85, 0xc3, 0x8b, 0x3e, 0x37, 0x76, 0xa3, 0xbe, 0xa7, 0x2e, 0xfc, 0x3c,
  0x69, 0x33, 0x0b, 0xbd, 0x0d, 0x79, 0x1b, 0xbe, 0x7d, 0x2c, 0x01, 0x3e,
  0xc3, 0xac, 0x56, 0x3c, 0x41, 0xeb, 0x1d, 0xbe, 0x72, 0xdc, 0xab, 0xbd,
  0x29, 0xaf, 0x40, 0x3d, 0xb9, 0x09, 0x73, 0x3e, 0xa5, 0x08, 0xe6, 0x3d,
  0x60, 0xc6, 0x8c, 0xbd, 0xac, 0x39, 0xbc, 0xbd, 0x7b, 0x61, 0xcc, 0x3c,
  0x1c, 0x9b, 0xfd, 0xbd, 0x31, 0x09, 0xe9, 0x3e, 0x68, 0xc2, 0xc8, 0x3d,
  0x1a, 0x32, 0x64, 0x3e, 0xd0, 0x78, 0xa8, 0xbd, 0xed, 0x2e, 0x53, 0xbd,
  0x13, 0xc9, 0x2e, 0x3e, 0x64, 0xd4, 0x97, 0xbd, 0x07, 0xa5, 0xbf, 0x3c,
  0xf0, 0x79, 0xdc, 0xbb, 0xb9, 0x70, 0xa7, 0xbe, 0x71, 0x14, 0x30, 0xbd,
  0xcf, 0x8c, 0x48, 0x3d, 0xa5, 0x24, 0x67, 0x3d, 0xae, 0x4e, 0xcf, 0xbd,
  0x66, 0xed, 0x6e, 0xbe, 0x58, 0x35, 0xb1, 0xbe, 0xc8, 0xb5, 0x8f, 0x3e,
  0x92, 0x38, 0xa2, 0x3e, 0xe5, 0x9e, 0xae, 0x3e, 0x4f, 0x5f, 0x2f, 0x3e,
  0x63, 0x84, 0x20, 0xbe, 0x4b, 0x8c, 0xdb, 0xbb, 0x45, 0xa4, 0x7e, 0xbe,
  0x5b, 0x28, 0x3a, 0x3e, 0x23, 0xa3, 0x79, 0x3d, 0xd5, 0xcc, 0x7e, 0xbe,
  0x77, 0x01, 0xee, 0xbd, 0x9d, 0xf0, 0x8c, 0x3e, 0x40, 0x7a, 0x30, 0x3e,
  0x6e, 0x70, 0x1d, 0xbe, 0x95, 0x29, 0xe9, 0xbe, 0x5a, 0xfe, 0x80, 0xbe,
  0x95, 0x9d, 0x80, 0x3e, 0x67, 0x10, 0x9f, 0x3e, 0xa2, 0xa0, 0xde, 0x3d,
  0x64, 0x54, 0xbc, 0x3d, 0x9d, 0xf6, 0x2b, 0x3d, 0xe7, 0x61, 0x03, 0xbe,
  0x1c, 0xc4, 0x9b, 0xbe, 0xa2, 0x7d, 0x9c, 0x3d, 0x2d, 0x2a, 0xd9, 0x3d,
  0x23, 0xe7, 0x14, 0x3c, 0xbd, 0xa3, 0x41, 0x3e, 0x74, 0xc6, 0x9f, 0x3b,
  0x02, 0x84, 0xcc, 0xbd, 0xc7, 0xb7, 0x1a, 0x3e, 0xf4, 0x07, 0xf2, 0xbc,
  0x71, 0x08, 0x39, 0xbe, 0x14, 0x93, 0x4b, 0x3d, 0x4f, 0xfa, 0x3c, 0x3e,
  0xae, 0xef, 0x04, 0x3f, 0xc5, 0x2f, 0x96, 0xbc, 0x10, 0xd4, 0x2f, 0x3e,
  0xfa, 0xe9, 0x02, 0xbe, 0x7b, 0x2f, 0x2e, 0xbe, 0x2b, 0x9b, 0x6b, 0xbe,
  0x9a, 0x03, 0xf6, 0x3d, 0x94, 0x8e, 0x39, 0xbe, 0x77, 0xda, 0xc8, 0x3b,
  0x75, 0xe8, 0xc9, 0x3c, 0xa2, 0x98, 0x3a, 0xbe, 0xc1, 0xf1, 0x07, 0xbd,
  0x0c, 0xf8, 0x8f, 0xbd, 0x44, 0x9c, 0x9c, 0xbe, 0x16, 0xc9, 0xd8, 0xbd,
  0x63, 0xcf, 0x63, 0xbd, 0xdf, 0xef, 0x04, 0x3e, 0xf0, 0xea, 0x2a, 0xbe,
  0x55, 0xc7, 0x27, 0xbe, 0x81, 0xb7, 0x0f, 0xbe, 0x8d, 0xf2, 0xbf, 0xbd,
  0x9d, 0x8d, 0xcd, 0xbd, 0x6b, 0xca, 0x52, 0xbe, 0x9a, 0x47, 0x92, 0xbe,
  0xb7, 0x50, 0x9f, 0xbd, 0x00, 0xac, 0x5f, 0x3d, 0x3a, 0x42, 0xaa, 0xbe,
  0xe2, 0xa0, 0xf5, 0xb9, 0x22, 0x1e, 0x06, 0xbd, 0xb5, 0x38, 0x89, 0xbd,
  0xce, 0xf9, 0xe2, 0xbc, 0x0f, 0xee, 0x57, 0xbe, 0xdd, 0xac, 0x08, 0xbe,
  0xc3, 0x5c, 0x9d, 0xbd, 0x0f, 0x45, 0x14, 0xbe, 0xae, 0xd7, 0xc0, 0x3b,
  0xea, 0xbe, 0x1a, 0xbe, 0x92, 0x9a, 0x9b, 0xbe, 0x25, 0xa5, 0xad, 0xbd,
  0x0b, 0x32, 0x9a, 0x3d, 0x03, 0xc0, 0x13, 0x3a, 0x74, 0x89, 0x95, 0xbe,
  0x58, 0xf4, 0x4b, 0xbe, 0x63, 0x04, 0x08, 0xbe, 0xdf, 0x41, 0x0e, 0x3d,
  0xb0, 0x6c, 0x3e, 0xbe, 0x27, 0x8d, 0x88, 0x3e, 0x6a, 0x27, 0x98, 0xbd,
  0x6f, 0xb7, 0xb9, 0xbc, 0x29, 0x68, 0x45, 0xbe, 0x89, 0xb3, 0xd5, 0xbc,
  0x2f, 0xf5, 0xb9, 0x3d, 0x3e, 0xde, 0x5c, 0xbe, 0x3b, 0xd8, 0xf6, 0xbe,
  0x01, 0x9d, 0x1d, 0xbe, 0x1a, 0xad, 0x36, 0x3d, 0x40, 0xdf, 0x33, 0xbe,
  0xb4, 0x78, 0x94, 0xbe, 0x50, 0x0f, 0x89, 0xbd, 0x02, 0x8e, 0xa1, 0x3c,
  0x91, 0x26, 0xbb, 0x3c, 0x5a, 0xf3, 0x23, 0xbd, 0x5b, 0xf7, 0x9b, 0xbd,
  0x1f, 0x96, 0x5c, 0xbd, 0x31, 0xd3, 0x15, 0x3c, 0xe1, 0xfb, 0x92, 0xbe,
  0xe0, 0xd2, 0x6b, 0xbd, 0xa1, 0x35, 0x27, 0xbe, 0x98, 0x8f, 0xdb, 0x3d,
  0xcb, 0x75, 0x23, 0xbe, 0xe1, 0x44, 0x1d, 0xbe, 0xd7, 0xd3, 0x1e, 0x3e,
  0xc6, 0x84, 0x2c, 0xbe, 0xa0, 0x36, 0x29, 0xbe, 0xbd, 0xb5, 0xb6, 0x3e,
  0x8b, 0x03, 0x16, 0xbd, 0x98, 0xb9, 0xef, 0xbc, 0x44, 0xef, 0xab, 0x3d,
  0x21, 0xdf, 0x07, 0x3b, 0xed, 0x51, 0xea, 0xbd, 0x06, 0x9a, 0x85, 0xbd,
  0xb4, 0xef, 0xde, 0xbd, 0x7b, 0x58, 0x6d, 0x3e, 0x42, 0x26, 0x95, 0xbe,
  0xeb, 0x5b, 0x5f, 0xbd, 0x78, 0x14, 0xd8, 0xbd, 0x98, 0xd8, 0x88, 0xbd,
  0xe6, 0x14, 0xca, 0x3d, 0x83, 0xc2, 0xe7, 0xbd, 0x4d, 0x69, 0xba, 0xbe,
  0x50, 0x43, 0x47, 0x3e, 0xf4, 0x2d, 0xd5, 0xbd, 0x94, 0xae, 0x24, 0x3d,
  0x0a, 0x05, 0x24, 0x3d, 0xa7, 0x84, 0x33, 0xbd, 0xe9, 0xe2, 0x73, 0xbe,
  0x89, 0x98, 0x42, 0xbe, 0xd2, 0x91, 0xc4, 0x3c, 0xdc, 0xb6, 0x74, 0x3d,
  0x9a, 0xf3, 0x09, 0xbe, 0x7a, 0xd4, 0x16, 0xbd, 0x1d, 0x43, 0xc6, 0x3d,
  0x74, 0x55, 0x60, 0x3d, 0x0f, 0xe1, 0xfc, 0xbd, 0xea, 0x8e, 0x9a, 0xbe,
  0x71, 0x6c, 0xcd, 0xbd, 0xf1, 0xcd, 0x23, 0x3e, 0xce, 0x51, 0x2e, 0x3c,
  0x5a, 0x2b, 0xd9, 0x3c, 0x4e, 0x42, 0x05, 0x3e, 0x71, 0xc1, 0x80, 0xbd,
  0x00, 0xde, 0x25, 0x3d, 0x21, 0xf9, 0x33, 0x3d, 0xdc, 0x59, 0xde, 0xbd,
  0xcf, 0x06, 0x90, 0xbd, 0x6e, 0xb3, 0x8b, 0xbc, 0x7d, 0xc1, 0x1e, 0xbd,
  0x12, 0x86, 0x76, 0x3e, 0x4a, 0x94, 0x99, 0x3d, 0x5f, 0x2f, 0xeb, 0xbe,
  0xdb, 0x2c, 0x85, 0x3f, 0xc3, 0x61, 0x4c, 0x3e, 0x2a, 0x6d, 0x84, 0x3c,
  0xb2, 0x0b, 0xe7, 0xbb, 0xb6, 0xce, 0x7a, 0x3e, 0x39, 0xda, 0x59, 0xbe,
  0xdb, 0x6d, 0xfb, 0x3d, 0x19, 0x41, 0x40, 0xbe, 0xa6, 0xb2, 0xea, 0x3d,
  0x8a, 0x9e, 0x9b, 0xbe, 0x83, 0xc2, 0x9e, 0x3e, 0x37, 0x0c, 0xfc, 0x3b,
  0x3c, 0xad, 0xa2, 0x3b, 0x4d, 0x49, 0xbb, 0x3d, 0xfd, 0x3d, 0xed, 0x3e,
  0xd5, 0x4b, 0x97, 0xbe, 0xbf, 0x27, 0xbb, 0x3e, 0x0a, 0xd2, 0xa7, 0xbd,
  0x10, 0x39, 0x76, 0xbe, 0xd9, 0xef, 0x0e, 0xbe, 0xe2, 0x92, 0x75, 0x3d,
  0x81, 0x16, 0xf6, 0xbc, 0x96, 0x6c, 0xd6, 0x3e, 0xd8, 0x7f, 0x2f, 0xbe,
  0xd3, 0x53, 0xb9, 0x3e, 0x32, 0x57, 0x59, 0xbe, 0x0f, 0x0b, 0x29, 0x3d,
  0x9c, 0xf6, 0x31, 0x3d, 0xb9, 0x82, 0x4a, 0xbd, 0xea, 0x97, 0x2f, 0xbe,
  0x6c, 0x67, 0x57, 0x3c, 0x42, 0x42, 0xa7, 0xbe, 0x89, 0xa6, 0x21, 0x3e,
  0x7f, 0x68, 0x4b, 0xbd, 0x86, 0xa0, 0xbe, 0xbd, 0x6d, 0xf9, 0x8a, 0xbd,
  0x75, 0x1a, 0xdc, 0x3d, 0x59, 0x3a, 0xb9, 0xbd, 0x68, 0x92, 0xb6, 0x3d,
  0x4e, 0xdd, 0xe4, 0x3d, 0x63, 0x44, 0xdb, 0x3e, 0x14, 0x2c, 0x44, 0xbe,
  0xea, 0xf7, 0xe2, 0x3d, 0x71, 0x0e, 0x0c, 0x3e, 0xcc, 0x60, 0x05, 0x3e,
  0xb8, 0xe2, 0x18, 0xbe, 0xda, 0xc8, 0xa7, 0x3c, 0x54, 0x2e, 0x2b, 0xbe,
  0x12, 0x5f, 0x11, 0x3e, 0xf0, 0xc6, 0x08, 0x3d, 0xcb, 0x15, 0xec, 0xbd,
  0x7e, 0xc8, 0xa0, 0xbd, 0x46, 0x4f, 0x38, 0x3d, 0xf7, 0x98, 0xd0, 0x3c,
  0xf0, 0x91, 0x0a, 0x3f, 0x15, 0x86, 0x00, 0xbd, 0x15, 0xff, 0xb4, 0x3e,
  0xa3, 0x00, 0x99, 0xbe, 0xf6, 0x04, 0xf2, 0x3d, 0x7f, 0xe6, 0x1e, 0x3e,
  0xe6, 0x9e, 0x7e, 0x3d, 0x6d, 0xe9, 0x5a, 0xbb, 0x59, 0xf5, 0x49, 0x3e,
  0x76, 0x30, 0x8d, 0xbe, 0x19, 0x2d, 0x9e, 0x3e, 0xfe, 0x03, 0x11, 0x3d,
  0xd3, 0x16, 0x42, 0xbc, 0xc4, 0x7a, 0x8b, 0xbd, 0x99, 0x50, 0x15, 0x3d,
  0xef, 0x15, 0x0b, 0xbe, 0x65, 0xeb, 0x07, 0x3f, 0xb4, 0x9f, 0x76, 0xbd,
  0x41, 0x6c, 0x49, 0x3e, 0x2c, 0xb7, 0x88, 0xbe, 0xc5, 0xfb, 0xcf, 0xbc,
  0x20, 0x28, 0x4b, 0x3e, 0xf0, 0x71, 0x34, 0x3d, 0xf2, 0xbc, 0xeb, 0xbc,
  0x10, 0x7f, 0x0b, 0x3e, 0x82, 0xaa, 0x16, 0xbe, 0x07, 0xd9, 0x54, 0x3e,
  0x31, 0xef, 0xac, 0x3d, 0xe9, 0xdd, 0x8c, 0xbd, 0x4b, 0x7f, 0x06, 0xbe,
  0x77, 0x2c, 0x1e, 0x3d, 0x17, 0x23, 0x48, 0xbe, 0x0e, 0x49, 0x87, 0x3e,
  0x50, 0x6c, 0x87, 0x3d, 0x0d, 0x1f, 0xf8, 0x3d, 0xd0, 0xae, 0xcd, 0xbe,
  0x7e, 0x0c, 0x03, 0x3e, 0x59, 0xae, 0xc8, 0xbd, 0x7c, 0xb5, 0xaf, 0xbd,
  0x72, 0x01, 0x84, 0xbd, 0x69, 0x6b, 0xe8, 0x3d, 0x55, 0xd7, 0x8e, 0xbe,
  0x58, 0x70, 0x07, 0x3f, 0x60, 0xc5, 0xa6, 0xbe, 0x41, 0x60, 0xfb, 0xbd,
  0x99, 0x65, 0x76, 0x3d, 0x29, 0x92, 0xe0, 0x3c, 0x05, 0xc7, 0x4b, 0xbe,
  0x3d, 0x89, 0xad, 0x3e, 0x5a, 0x65, 0x50, 0xbe, 0x78, 0x50, 0x0d, 0x3f,
  0x79, 0x04, 0x0b, 0xbf, 0x9d, 0x61, 0xb1, 0x3d, 0xa1, 0x6d, 0x59, 0xbe,
  0x0d, 0xdb, 0x91, 0xbd, 0xd0, 0x26, 0xef, 0xbd, 0x30, 0x55, 0xae, 0x3d,
  0xdc, 0xca, 0xaa, 0x3c, 0x5d, 0x64, 0x10, 0xbf, 0x94, 0x7d, 0x37, 0xbf,
  0xc3, 0xdd, 0x15, 0xbe, 0x90, 0x5c, 0xbe, 0x3f, 0x1c, 0xe5, 0xda, 0xbe,
  0xd9, 0x99, 0x18, 0x3c, 0x22, 0x07, 0x90, 0xbe, 0x93, 0xe3, 0x89, 0x3e,
  0xbd, 0x19, 0xc2, 0x3b, 0x71, 0x21, 0x7c, 0xbe, 0xe3, 0xaf, 0x3b, 0xbe,
  0x34, 0xea, 0xf2, 0x3c, 0x48, 0x44, 0xfb, 0xbd, 0x45, 0xad, 0x0a, 0xbf,
  0x7c, 0xe8, 0xd4, 0xbe, 0xe8, 0x5c, 0x89, 0x3d, 0x88, 0x60, 0x6d, 0xbe,
  0xb3, 0x7f, 0xb5, 0xbe, 0xba, 0x45, 0xad, 0x3e, 0x74, 0xc4, 0xdd, 0x3f,
  0xd0, 0x1a, 0xbf, 0x3d, 0x60, 0x4a, 0x14, 0x3e, 0x22, 0x5f, 0x51, 0xbe,
  0x12, 0x29, 0x00, 0x3e, 0x90, 0x24, 0x32, 0x3e, 0x3d, 0xa1, 0x0a, 0xbf,
  0x66, 0x90, 0xb4, 0x3d, 0xb1, 0xc2, 0xb0, 0xbe, 0x2b, 0x11, 0xde, 0xbd,
  0xae, 0x9c, 0x75, 0x3e, 0x48, 0x36, 0x78, 0x3e, 0xc2, 0x50, 0x6d, 0x3c,
  0x37, 0xf8, 0x65, 0xbe, 0xc6, 0x4c, 0x4a, 0xbe, 0x12, 0x73, 0x88, 0x3d,
  0x6e, 0x3b, 0x0a, 0x40, 0x3a, 0xc1, 0x7d, 0x3b, 0xdb, 0xbb, 0x84, 0x3d,
  0x09, 0xfb, 0xbc, 0xbe, 0x8e, 0x65, 0xb3, 0x3d, 0xc6, 0x15, 0x46, 0x3d,
  0x98, 0xd4, 0x1e, 0xbf, 0x24, 0x06, 0x16, 0x3d, 0x02, 0x07, 0xe4, 0xbe,
  0x4f, 0x6c, 0xa3, 0xbd, 0x0c, 0x68, 0x56, 0x3e, 0x65, 0x26, 0x0b, 0x3e,
  0xc8, 0x05, 0xec, 0xbc, 0x9c, 0xa4, 0x1e, 0xbd, 0xc6, 0xb3, 0x56, 0xbe,
  0x1e, 0x06, 0x52, 0xbd, 0x51, 0x8d, 0xe6, 0x3f, 0x53, 0xbd, 0xf7, 0x39,
  0xbd, 0xd1, 0x05, 0x3d, 0x04, 0xdd, 0xc3, 0xbd, 0x24, 0xc4, 0x90, 0x3e,
  0xf1, 0x5d, 0xae, 0x3d, 0x8a, 0x9b, 0xc7, 0xbe, 0xcb, 0xa8, 0x1c, 0xbe,
  0x8b, 0xcc, 0xa3, 0xbd, 0x7b, 0xf3, 0xff, 0xbd, 0xdc, 0x92, 0xba, 0x3c,
  0x39, 0x4b, 0x73, 0xbb, 0x1a, 0x03, 0x1a, 0x3d, 0x13, 0x96, 0x6d, 0x3e,
  0xd9, 0x3e, 0x9d, 0xbd, 0xd8, 0x93, 0x28, 0xbe, 0x8b, 0x56, 0xe0, 0x3f,
  0x68, 0xdb, 0x8e, 0xbd, 0xca, 0x91, 0xf2, 0xbd, 0x85, 0x83, 0x81, 0xbe,
  0xa7, 0xb9, 0xc1, 0x3d, 0x4f, 0x77, 0xee, 0x3d, 0x8f, 0x1e, 0x04, 0xbf,
  0x62, 0xd1, 0x5b, 0xbe, 0x33, 0xc6, 0x2c, 0xbe, 0x13, 0xbf, 0x58, 0xbe,
  0x87, 0xf4, 0x2f, 0xbe, 0x53, 0xdb, 0xfc, 0x3c, 0x58, 0x13, 0x42, 0x3d,
  0xf5, 0xf0, 0x02, 0xbd, 0x9c, 0x82, 0x8d, 0xbe, 0x99, 0xaf, 0xbc, 0xbd,
  0x88, 0x3d, 0x13, 0x40, 0x0a, 0xe5, 0x12, 0xbd, 0x87, 0x57, 0xe1, 0xbd,
  0xba, 0x21, 0x89, 0xbe, 0x0c, 0x68, 0x9f, 0xbd, 0x94, 0xaf, 0xbf, 0xbd,
  0x90, 0xf1, 0x19, 0xbf, 0x72, 0x56, 0x12, 0xbd, 0x7e, 0x2f, 0x37, 0xbe,
  0x12, 0xf1, 0x86, 0xbe, 0x80, 0x6e, 0x20, 0xbe, 0xfe, 0xcd, 0x05, 0xbe,
  0x36, 0xc5, 0x3f, 0x3e, 0x9c, 0x01, 0xfd, 0xbd, 0x76, 0xf2, 0xab, 0x3d,
  0x4e, 0x8f, 0xe0, 0x3d, 0xcf, 0xfb, 0xf6, 0x3f, 0x93, 0x42, 0x89, 0xbd,
  0xe7, 0xad, 0x13, 0xbb, 0x47, 0xd4, 0x91, 0xbe, 0xbf, 0x3e, 0xc0, 0xbc,
  0x76, 0xc0, 0xba, 0xbe, 0x14, 0x77, 0x7b, 0xbe, 0x41, 0xee, 0xb7, 0x3d,
  0xad, 0xf1, 0x46, 0x3e, 0x96, 0xf9, 0x6b, 0x3e, 0x11, 0x27, 0x9c, 0x3d,
  0xfd, 0x94, 0x3e, 0xbd, 0x3d, 0x41, 0x64, 0xbe, 0x9b, 0x97, 0xca, 0xbd,
  0x1e, 0x74, 0x2c, 0xbe, 0xea, 0x9c, 0x42, 0x3e, 0x0e, 0x86, 0x05, 0x40,
  0xce, 0xcb, 0x13, 0x3c, 0x75, 0x6a, 0xfe, 0xbc, 0x57, 0x74, 0xa8, 0xbd,
  0x9c, 0x71, 0x74, 0x3c, 0x0d, 0x78, 0x66, 0x3e, 0x30, 0xd5, 0x92, 0xbe,
  0xe6, 0xfa, 0xd0, 0xbc, 0xeb, 0xb8, 0xc7, 0xbe, 0x99, 0x8b, 0xf6, 0xbd,
  0xb0, 0x25, 0x86, 0xbd, 0x93, 0xa8, 0x10, 0x3b, 0x51, 0xd4, 0x70, 0xbe,
  0x8b, 0x1b, 0x63, 0x3e, 0xda, 0x97, 0x63, 0xbd, 0x57, 0xed, 0x17, 0xbe,
  0x09, 0xdd, 0x16, 0x40, 0x28, 0x5d, 0xa3, 0xbd, 0x3e, 0x11, 0x2b, 0x3e,
  0xc8, 0xdd, 0x54, 0xbd, 0xe9, 0x75, 0x21, 0x3e, 0xda, 0xcb, 0x5b, 0x3e,
  0xf2, 0xf4, 0xa0, 0xbe, 0xb2, 0x89, 0x89, 0xbc, 0xe5, 0x2d, 0xd6, 0xbe,
  0xb1, 0xa0, 0x00, 0xbe, 0x18, 0x55, 0x90, 0xbe, 0x5c, 0xed, 0x37, 0xbe,
  0x39, 0xbc, 0x49, 0xbe, 0x9d, 0xec, 0xa6, 0x3d, 0x8d, 0x65, 0x41, 0x3c,
  0xad, 0x05, 0x0c, 0xbe, 0x4f, 0x7f, 0x05, 0x40, 0x4a, 0x84, 0x23, 0xbd,
  0x39, 0x96, 0x2f, 0x3d, 0x09, 0x1e, 0x69, 0x3d, 0x7a, 0x88, 0x4d, 0x3e,
  0x8f, 0x23, 0x72, 0x3d, 0xb7, 0xe6, 0xb3, 0xbe, 0xc6, 0xc1, 0x2f, 0x3e,
  0xc7, 0x98, 0x6d, 0xbd, 0xd8, 0xf9, 0x84, 0xbd, 0x70, 0xb8, 0x81, 0xbe,
  0x7b, 0x22, 0x1d, 0xbe, 0x15, 0xf6, 0x56, 0xbe, 0x68, 0x9a, 0xca, 0x3d,
  0xf4, 0xc7, 0xc4, 0x3d, 0xc6, 0xec, 0x26, 0xbd, 0xe4, 0xeb, 0x09, 0x40,
  0x02, 0xab, 0x39, 0xbe, 0x96, 0x79, 0x9c, 0x3c, 0x6b, 0x03, 0x19, 0xbe,
  0x58, 0x23, 0x05, 0x3e, 0x72, 0x76, 0x9f, 0x3d, 0x42, 0xa0, 0x24, 0xbe,
  0xf6, 0x87, 0xe1, 0xbe, 0xc0, 0x5a, 0xa0, 0xbc, 0x9e, 0x69, 0x92, 0xbd,
  0x67, 0x9e, 0xce, 0x3d, 0x3b, 0x15, 0xf0, 0xbe, 0x38, 0x53, 0x48, 0xbe,
  0x37, 0x9b, 0x9f, 0x3d, 0xb9, 0x45, 0xf0, 0x3d, 0xa7, 0x4b, 0x21, 0xbe,
  0x88, 0x19, 0x10, 0x40, 0xfc, 0xe7, 0x94, 0xbe, 0xeb, 0xa9, 0xd5, 0x3d,
  0xce, 0xb5, 0xa4, 0xbd, 0xe2, 0x8e, 0x83, 0x3c, 0xf4, 0x31, 0xca, 0xbc,
  0x84, 0x92, 0x83, 0xbe, 0xbc, 0x76, 0xdc, 0xbe, 0xff, 0x76, 0x92, 0x3d,
  0xe1, 0x22, 0x97, 0x3d, 0x13, 0x60, 0x60, 0xbe, 0xa8, 0x02, 0xf1, 0xbe,
  0x6d, 0xe1, 0x63, 0xbd, 0xcf, 0xf4, 0xbe, 0xbd, 0x1d, 0xc5, 0x59, 0x3d,
  0x19, 0xb6, 0x17, 0xbe, 0xf5, 0xdc, 0x25, 0x40, 0x9f, 0x24, 0x9a, 0xbe,
  0xa9, 0xeb, 0x53, 0x3e, 0x4f, 0x8f, 0x95, 0xbe, 0xd8, 0x3e, 0x69, 0x3d,
  0x80, 0x47, 0x28, 0xbc, 0x72, 0xc6, 0x02, 0xbe, 0x5e, 0x6c, 0x82, 0xbe,
  0x23, 0xb5, 0xa0, 0x3e, 0xf1, 0x5d, 0x01, 0x3c, 0x87, 0x27, 0xd1, 0xbd,
  0xd5, 0x5f, 0x15, 0xbe, 0xbc, 0xdc, 0x8f, 0xbe, 0x9e, 0x63, 0x02, 0xbe,
  0x73, 0x5a, 0xa5, 0x3e, 0x0b, 0x43, 0x9c, 0xbe, 0xa5, 0x3b, 0x12, 0x40,
  0x23, 0xef, 0xb0, 0xbe, 0x35, 0x98, 0xca, 0x3c, 0xfe, 0x4f, 0x20, 0xbe,
  0xb4, 0x4d, 0x90, 0x3d, 0x46, 0x68, 0xb2, 0xbc, 0xf4, 0xf2, 0x9d, 0x3d,
  0xe5, 0xa8, 0xa7, 0xbe, 0x71, 0xea, 0xa1, 0x3e, 0x5d, 0x95, 0x01, 0x3e,
  0x2b, 0x46, 0xb2, 0xbd, 0xb0, 0x2b, 0x04, 0xbe, 0x9e, 0x93, 0x8c, 0xbd,
  0x7e, 0x2b, 0x62, 0x3f, 0xee, 0xdd, 0x17, 0x3e, 0xb1, 0xa9, 0xea, 0x3d,
  0xff, 0x10, 0x76, 0xbd, 0xfd, 0xc0, 0x88, 0x3e, 0x70, 0x11, 0x0d, 0xbe,
  0xa9, 0x91, 0x0b, 0x3c, 0xd8, 0x5d, 0xb1, 0xbe, 0x68, 0x2c, 0xac, 0x3e,
  0x3c, 0x50, 0x67, 0xbe, 0xe8, 0xc8, 0x85, 0x3e, 0xc1, 0xb7, 0x2f, 0xbd,
  0xca, 0xed, 0x86, 0x3c, 0x65, 0x25, 0x32, 0x3e, 0xa0, 0xde, 0xd9, 0x3e,
  0x20, 0xc8, 0x09, 0xbe, 0xc8, 0x8a, 0x2f, 0x3e, 0x35, 0x9c, 0x52, 0x3d,
  0x50, 0x73, 0x90, 0xbd, 0x8f, 0x86, 0xa5, 0xbe, 0x66, 0x1d, 0xc0, 0xbc,
  0x67, 0x1d, 0x71, 0xbd, 0x11, 0x52, 0x97, 0xbd, 0x48, 0x50, 0xa4, 0x3e,
  0xab, 0x2d, 0xda, 0x3d, 0x7f, 0xcc, 0xa2, 0xbe, 0x63, 0xf7, 0x59, 0xbb,
  0x72, 0x07, 0x61, 0x3d, 0xb5, 0x6a, 0x35, 0x3d, 0x37, 0x47, 0xe5, 0xbd,
  0x85, 0xea, 0x01, 0xbe, 0x47, 0x9b, 0x7c, 0xbd, 0x2a, 0xed, 0x55, 0x3e,
  0x4b, 0xe6, 0x64, 0x3b, 0xcb, 0x6d, 0xd2, 0xbc, 0xbf, 0xa1, 0x37, 0xbe,
  0x3b, 0xb4, 0x44, 0x3c, 0x6c, 0x1a, 0x12, 0x3c, 0x21, 0x1f, 0x17, 0x3f,
  0x00, 0xa1, 0x5f, 0x3e, 0x5e, 0x2f, 0x2f, 0xbc, 0x62, 0xc7, 0xd6, 0xbe,
  0x20, 0x48, 0x80, 0x3d, 0xd4, 0xe7, 0x0d, 0x3e, 0x8b, 0xe1, 0xc6, 0x3d,
  0x0b, 0x0b, 0x2b, 0xbd, 0x97, 0x78, 0x78, 0xbd, 0x31, 0x4e, 0xb7, 0x3b,
  0x20, 0xba, 0x40, 0xbd, 0xa3, 0x21, 0x62, 0xbc, 0xab, 0x1a, 0x00, 0x3e,
  0xfe, 0xb4, 0x8a, 0xbe, 0xe8, 0xd2, 0x13, 0x3d, 0x23, 0x1f, 0x2b, 0x3d,
  0xf3, 0x68, 0x07, 0x3f, 0xaa, 0xe1, 0xff, 0xbd, 0xe5, 0x22, 0x19, 0x3e,
  0x97, 0x71, 0xc0, 0xbe, 0x7f, 0x94, 0x97, 0x3d, 0xc7, 0xad, 0x67, 0x3e,
  0xd3, 0x62, 0xc2, 0x3d, 0xf4, 0x63, 0x12, 0xbd, 0xa9, 0xdb, 0x81, 0xbc,
  0x17, 0xec, 0x10, 0x3c, 0x8c, 0x92, 0x8e, 0x3d, 0x58, 0xa9, 0xa6, 0x3d,
  0x3e, 0xfd, 0xcd, 0xbc, 0xba, 0x48, 0x8b, 0xbe, 0x02, 0xb6, 0xba, 0xbc,
  0x0c, 0x95, 0x33, 0x3c, 0x94, 0xa0, 0x27, 0x3f, 0x53, 0xd7, 0xbd, 0xbe,
  0xba, 0x97, 0xdc, 0x3d, 0x35, 0xd2, 0x92, 0xbe, 0xd6, 0xbb, 0xa2, 0x3d,
  0x91, 0xc1, 0x77, 0x3e, 0xe2, 0x26, 0x90, 0x3c, 0x08, 0xac, 0x71, 0x3d,
  0xc0, 0x83, 0x66, 0x3c, 0x8e, 0x5b, 0x83, 0xbd, 0x45, 0xdd, 0x89, 0x3e,
  0x51, 0x1e, 0x0f, 0xbd, 0x94, 0x31, 0x76, 0x3d, 0xa1, 0x5a, 0x6f, 0xbe,
  0x29, 0x38, 0xbc, 0x3c, 0x4d, 0x69, 0x70, 0xbd, 0x36, 0x7c, 0x0d, 0x3f,
  0xc2, 0x8c, 0x0e, 0xbc, 0xf8, 0x78, 0x10, 0x3c, 0xb7, 0x18, 0xe8, 0xbe,
  0x3b, 0x31, 0xe8, 0xbc, 0x43, 0xd4, 0x3e, 0x3d, 0x9b, 0xfc, 0xbb, 0x3d,
  0xc5, 0x4f, 0xcc, 0xbd, 0x4f, 0xb2, 0xe2, 0xbc, 0x57, 0xaf, 0xc2, 0xbd,
  0xcc, 0x4a, 0x84, 0x3e, 0x4a, 0x01, 0x84, 0xbe, 0x3d, 0x26, 0x99, 0xbc,
  0x9f, 0xdf, 0x24, 0x3e, 0xf4, 0x90, 0x67, 0x3d, 0xbe, 0x12, 0xcd, 0xbd,
  0xcd, 0x36, 0x7f, 0x3e, 0x76, 0x0d, 0x70, 0xbe, 0xe9, 0x29, 0x0c, 0x3f,
  0x25, 0xb4, 0x36, 0xbf, 0x16, 0xc2, 0x4c, 0xbd, 0x25, 0xf3, 0x15, 0xbe,
  0xd0, 0xf0, 0x98, 0x3c, 0x53, 0x1a, 0xa7, 0x3c, 0x38, 0x82, 0x4e, 0xbd,
  0x3b, 0x6d, 0x44, 0xbe, 0x8b, 0x99, 0x26, 0xbe, 0x05, 0x75, 0x40, 0x3e,
  0xf0, 0xf2, 0x9b, 0xbd, 0xfc, 0xb9, 0xea, 0x3f, 0x82, 0xee, 0xb6, 0xbe,
  0x75, 0x07, 0x27, 0x3e, 0x56, 0x87, 0xfa, 0xbd, 0x41, 0x0c, 0x50, 0x3e,
  0x5b, 0x6b, 0x3e, 0xbe, 0x5d, 0x49, 0x18, 0x3e, 0x8f, 0x75, 0x42, 0xbe,
  0x4f, 0x27, 0xe2, 0x3e, 0xbc, 0x71, 0x5e, 0x3e, 0x29, 0x26, 0xe8, 0x3c,
  0x0a, 0x35, 0x63, 0xbe, 0x7d, 0xcd, 0x50, 0x3e, 0xfd, 0xff, 0x5a, 0x3e,
  0x8f, 0x4f, 0x41, 0x3e, 0x80, 0xdd, 0x0c, 0xbe, 0x96, 0x64, 0x17, 0x40,
  0x13, 0x28, 0x01, 0xbe, 0xe6, 0xb0, 0x2d, 0x3c, 0x8a, 0x7d, 0x0f, 0xbe,
  0x91, 0x4c, 0xc8, 0xbd, 0xb4, 0x49, 0xce, 0xbd, 0xb1, 0x50, 0x5e, 0xbe,
  0x14, 0x91, 0xea, 0xbd, 0xea, 0xb5, 0x00, 0x3e, 0x28, 0xdc, 0x89, 0x3c,
  0xee, 0xac, 0xa1, 0xbc, 0x57, 0xb3, 0x0b, 0xbe, 0xf9, 0x19, 0x20, 0x3d,
  0xdf, 0x24, 0x61, 0x3d, 0xe7, 0x4c, 0x10, 0x3c, 0x02, 0xb1, 0x23, 0xbd,
  0x78, 0x7c, 0x10, 0x40, 0xcd, 0x97, 0x88, 0xbe, 0x2f, 0x17, 0xb8, 0x3c,
  0x26, 0x0f, 0xc5, 0xbe, 0x6e, 0xb7, 0x77, 0xbd, 0xb9, 0x87, 0x80, 0xbe,
  0x67, 0x5a, 0x02, 0xbe, 0xd1, 0x13, 0xd9, 0xbe, 0xb2, 0x74, 0x6d, 0x3c,
  0x09, 0x53, 0x78, 0xbd, 0x95, 0x34, 0xd3, 0xbd, 0xb5, 0x96, 0xe8, 0xbe,
  0x47, 0xa7, 0x31, 0xbd, 0xd3, 0x49, 0xd7, 0x3c, 0xc6, 0x5c, 0x74, 0xbe,
  0xb9, 0x91, 0x65, 0x3d, 0x7e, 0x95, 0x09, 0x40, 0x23, 0x9b, 0xd5, 0xbd,
  0x1e, 0xb6, 0x19, 0xbe, 0x05, 0x77, 0x0c, 0xbf, 0x91, 0x4d, 0x69, 0x3d,
  0xc1, 0xca, 0x4c, 0xbe, 0xdc, 0x39, 0xad, 0xbe, 0xd8, 0x56, 0x82, 0xbe,
  0x11, 0x42, 0x3e, 0xbf, 0x6a, 0xfc, 0xa7, 0xbe, 0x7e, 0x74, 0x47, 0xbd,
  0x68, 0x25, 0xc0, 0xbe, 0xa4, 0xff, 0xa7, 0xbc, 0x0b, 0x33, 0x4f, 0x3d,
  0x49, 0x45, 0x32, 0xbd, 0x98, 0x74, 0xc2, 0x3d, 0x38, 0x0b, 0x15, 0x40,
  0x6c, 0x71, 0xef, 0xbd, 0x82, 0xfa, 0x01, 0x3e, 0x8a, 0xd5, 0x4f, 0xbe,
  0xbb, 0x9d, 0x70, 0x3e, 0xf5, 0x02, 0x3e, 0xbd, 0xc8, 0xa8, 0x66, 0xbe,
  0x6e, 0x4b, 0x95, 0xbe, 0x02, 0xfd, 0x2a, 0x3e, 0xeb, 0x7d, 0x4b, 0xbe,
  0x77, 0xfe, 0xd5, 0xbd, 0x73, 0x69, 0x72, 0xbe, 0xc3, 0x2f, 0xe9, 0x3d,
  0xde, 0xe3, 0x30, 0x3e, 0x0b, 0xa4, 0xa5, 0x3d, 0xaa, 0x81, 0xa5, 0xbd,
  0xbb, 0x25, 0x24, 0x40, 0xcf, 0xe2, 0x51, 0xbc, 0x68, 0x37, 0xe6, 0x3d,
  0xce, 0x4d, 0xf7, 0xbe, 0x26, 0x2d, 0xd0, 0xbc, 0x47, 0x9e, 0x2f, 0xbe,
  0x63, 0xbe, 0x91, 0xbe, 0x67, 0x53, 0x69, 0xbe, 0xaa, 0xcd, 0xb3, 0x3e,
  0xe0, 0x99, 0x39, 0xbd, 0x45, 0xd8, 0x09, 0xbd, 0x9c, 0x64, 0x50, 0xbe,
  0x75, 0xe3, 0x81, 0xbd, 0x07, 0x68, 0xbb, 0x3c, 0x57, 0x95, 0x49, 0x3e,
  0x1c, 0xcf, 0x80, 0xbe, 0x69, 0xae, 0xfb, 0x3f, 0x21, 0x22, 0xe0, 0xbd,
  0x99, 0x1a, 0x83, 0x3d, 0xb7, 0x00, 0x85, 0xbe, 0xec, 0x06, 0x3a, 0xbd,
  0xe9, 0x3b, 0xa6, 0xbe, 0x1f, 0xce, 0xe0, 0x3d, 0xee, 0xda, 0x69, 0xbe,
  0xe1, 0x0f, 0xff, 0x3e, 0x05, 0x76, 0x2a, 0x3e, 0x3c, 0x35, 0xeb, 0xbc,
  0x48, 0xa3, 0x0c, 0xbd, 0x75, 0x03, 0xe5, 0x3d, 0x54, 0x28, 0x35, 0xbf,
  0xee, 0x8d, 0x45, 0xbf, 0xfa, 0x26, 0x0c, 0xbe, 0x7e, 0x16, 0x69, 0xbd,
  0x24, 0x42, 0xc4, 0xbe, 0xd4, 0x10, 0x68, 0x3d, 0x71, 0x36, 0x6a, 0x3c,
  0x36, 0x7f, 0x40, 0xbe, 0xb7, 0xca, 0x8a, 0xbe, 0xfe, 0x88, 0x6d, 0xbe,
  0x3d, 0x01, 0x6c, 0xbe, 0x23, 0x2a, 0x13, 0xbe, 0x02, 0xba, 0x64, 0xbe,
  0x4a, 0x15, 0xf3, 0xbe, 0xcc, 0xfc, 0x39, 0xbf, 0x08, 0x7d, 0x35, 0x3e,
  0xa0, 0x87, 0xef, 0xbe, 0x41, 0xdf, 0x1f, 0xbf, 0x9f, 0xc7, 0x87, 0x3e,
  0x98, 0x42, 0x56, 0xbd, 0xf4, 0xbf, 0xc7, 0x3d, 0xb2, 0x31, 0xc7, 0x3d,
  0x2b, 0xcd, 0xec, 0x3c, 0xdf, 0xe0, 0xd1, 0xbe, 0x3f, 0xf4, 0x04, 0x3d,
  0xdc, 0x9d, 0xaf, 0xbe, 0x4f, 0x19, 0x25, 0x3e, 0x37, 0x41, 0x05, 0xbe,
  0xb6, 0x69, 0xb2, 0x3d, 0xde, 0x1a, 0x4a, 0x3e, 0x46, 0x36, 0x0f, 0x3e,
  0xc0, 0x81, 0x3b, 0x3e, 0x5d, 0x89, 0x90, 0xbe, 0x9f, 0x0b, 0x52, 0xbe,
  0xf2, 0x25, 0x7b, 0x3d, 0xfa, 0xde, 0x83, 0xbd, 0x29, 0x45, 0x32, 0x3c,
  0x52, 0x8f, 0x82, 0x3d, 0x26, 0x8f, 0xa7, 0xbb, 0x0f, 0x35, 0x62, 0xbe,
  0x66, 0x23, 0xb4, 0x3e, 0x63, 0xe3, 0x37, 0xbe, 0x07, 0xe3, 0xd5, 0xbd,
  0x2f, 0x02, 0x0e, 0x3d, 0x8f, 0x77, 0x2f, 0x3d, 0xd7, 0xe3, 0x17, 0x3e,
  0xc6, 0x83, 0xf8, 0x3d, 0xb8, 0x90, 0x02, 0xbd, 0x62, 0xd3, 0xee, 0xbd,
  0x6f, 0x3b, 0x04, 0x3e, 0x66, 0x84, 0xfe, 0xbb, 0xda, 0x4c, 0x8f, 0xbd,
  0xbc, 0xff, 0x78, 0xbb, 0x14, 0x67, 0xc2, 0xbc, 0x37, 0xe2, 0x2c, 0xbe,
  0xb5, 0x48, 0x81, 0xbd, 0xd0, 0x34, 0x11, 0xbc, 0xd7, 0x85, 0x16, 0x3e,
  0xb8, 0x36, 0x1c, 0xbd, 0x7c, 0x7c, 0xf9, 0x3c, 0xea, 0x48, 0x7d, 0xbe,
  0xc1, 0xc0, 0x15, 0x3a, 0x5b, 0x11, 0x82, 0x3d, 0x3c, 0x2a, 0xdc, 0xbc,
  0x80, 0x64, 0xc6, 0xbd, 0xff, 0xd0, 0xfe, 0x3d, 0xba, 0x73, 0xa1, 0xbd,
  0x22, 0xdb, 0x8e, 0xbd, 0x4a, 0xa3, 0x74, 0x3c, 0x87, 0xb6, 0xcb, 0xbd,
  0xb8, 0x00, 0x32, 0xbd, 0x2d, 0xe4, 0xd6, 0x3d, 0x9c, 0xfe, 0xd3, 0xbc,
  0x27, 0x56, 0x5d, 0x3d, 0x7c, 0xc6, 0x92, 0xbc, 0xf4, 0x21, 0x18, 0xbe,
  0x60, 0x6a, 0xbe, 0xbe, 0x7f, 0x50, 0xee, 0x3c, 0x72, 0xa1, 0xb2, 0xbc,
  0x63, 0x1f, 0xdf, 0xbd, 0x4e, 0xf2, 0x40, 0xbe, 0xc6, 0x95, 0x07, 0x3e,
  0x93, 0x69, 0x84, 0xbd, 0x6a, 0x5b, 0x25, 0xbe, 0xe9, 0xef, 0x81, 0xbc,
  0x37, 0x95, 0x2a, 0xbe, 0x0e, 0xd9, 0xf6, 0xbc, 0xe0, 0xa2, 0x83, 0x3e,
  0x18, 0xed, 0x76, 0x3e, 0x3d, 0xb3, 0x0f, 0x3e, 0x70, 0xd4, 0x79, 0x3b,
  0xba, 0x23, 0x2b, 0xbe, 0xdb, 0xd6, 0xa3, 0xbe, 0x32, 0x40, 0x97, 0xbd,
  0x52, 0x73, 0xd0, 0xbc, 0x65, 0x94, 0x71, 0xbe, 0x66, 0xe4, 0xd7, 0xbd,
  0x51, 0xce, 0xbf, 0x3d, 0x19, 0x8a, 0x11, 0xbe, 0xba, 0xc0, 0x22, 0xbd,
  0x9b, 0xcc, 0xd6, 0x3c, 0x75, 0xd6, 0x2e, 0xbe, 0xa9, 0x88, 0xf9, 0xbd,
  0x07, 0x0b, 0x5a, 0x3e, 0xdd, 0x27, 0xed, 0x3d, 0xd3, 0x00, 0xbc, 0x3d,
  0xd4, 0xf9, 0xeb, 0xbd, 0x16, 0x94, 0xce, 0xbe, 0x9e, 0xc3, 0xbc, 0xbe,
  0x7a, 0xb2, 0xa6, 0xbd, 0x03, 0x55, 0x61, 0xbb, 0xba, 0xd0, 0xfe, 0xbd,
  0x6e, 0x13, 0x59, 0x3e, 0x08, 0x6f, 0xba, 0xbe, 0xc3, 0xf8, 0x2a, 0xbd,
  0xc5, 0xc2, 0xaa, 0x3c, 0xea, 0x2f, 0x61, 0xbd, 0xf1, 0x92, 0x79, 0xbe,
  0x3e, 0x66, 0x8f, 0x3e, 0xc0, 0x67, 0x1a, 0xbc, 0x76, 0x8d, 0xfe, 0x3d,
  0x9f, 0x06, 0x81, 0xbe, 0x08, 0x6a, 0x2f, 0xbc, 0xb4, 0x22, 0xe0, 0x3c,
  0x21, 0x30, 0x6e, 0xbe, 0xf9, 0x72, 0x5f, 0x3e, 0xa2, 0x0f, 0x70, 0xbd,
  0x1c, 0x1f, 0xa1, 0x3d, 0xa3, 0x70, 0xb0, 0x3e, 0x32, 0x35, 0x6d, 0x3e,
  0x59, 0x8e, 0x2f, 0xbe, 0x13, 0xdf, 0x7c, 0xbe, 0x89, 0x73, 0x63, 0xbe,
  0xc6, 0x2f, 0x98, 0xbe, 0x25, 0x1b, 0x9e, 0x3d, 0x3e, 0x0b, 0x87, 0x3d,
  0x42, 0xb5, 0xa3, 0x3e, 0x14, 0xd2, 0xeb, 0xbd, 0xb4, 0x75, 0xc4, 0x3c,
  0x25, 0xcd, 0x37, 0x3e, 0x6e, 0x60, 0x59, 0xbd, 0x9d, 0x46, 0x67, 0xbe,
  0x1e, 0xe5, 0x76, 0xbe, 0xeb, 0xe8, 0xcc, 0x3c, 0xfa, 0xd4, 0x17, 0x3e,
  0x41, 0xe1, 0x62, 0x3e, 0xb6, 0xb0, 0x75, 0x3d, 0xf1, 0xc3, 0x09, 0xbd,
  0x1a, 0xe8, 0x6a, 0xbe, 0x1a, 0x65, 0x4e, 0xbd, 0x77, 0xb8, 0xa7, 0x3e,
  0x12, 0xad, 0xd0, 0x3e, 0x8f, 0xe8, 0xfb, 0x3d, 0x5c, 0x0f, 0xb7, 0xbd,
  0x5d, 0x0f, 0xdd, 0x3d, 0xd8, 0x09, 0x2e, 0x3e, 0x8b, 0x4f, 0x31, 0xbe,
  0x50, 0x03, 0x68, 0xbe, 0x52, 0x49, 0x02, 0x3e, 0xde, 0xc3, 0xd7, 0x3d,
  0x83, 0x60, 0x3a, 0x3d, 0x2b, 0xed, 0xa3, 0xb9, 0x93, 0xb8, 0x33, 0x3e,
  0x71, 0x00, 0x18, 0xbc, 0xe0, 0xad, 0x1d, 0xbe, 0xda, 0x22, 0x9e, 0xbd,
  0x1b, 0xf3, 0x5a, 0x3d, 0x06, 0xcd, 0x6d, 0x3e, 0xbc, 0xfd, 0x36, 0x3e,
  0x1d, 0xe9, 0x98, 0x3e, 0xf6, 0x5c, 0x28, 0xbe, 0xae, 0x9f, 0x8a, 0x3d,
  0xd4, 0x47, 0x9a, 0xbe, 0x72, 0x7a, 0x91, 0xbd, 0xa5, 0xa7, 0x95, 0x3d,
  0x92, 0x85, 0xd4, 0xbd, 0x97, 0x63, 0x94, 0x3e, 0xe2, 0x9f, 0xa5, 0x3c,
  0x41, 0xea, 0xe9, 0x3d, 0x95, 0xaa, 0x11, 0xbe, 0x0a, 0x24, 0x96, 0xbd,
  0xb0, 0x03, 0x12, 0xbe, 0xbc, 0xe7, 0xc4, 0x3e, 0x4e, 0x21, 0xf6, 0x3d,
  0xca, 0x2f, 0x95, 0x3d, 0x03, 0x83, 0x11, 0xbe, 0xc0, 0xc9, 0xb4, 0x3d,
  0xe5, 0xfe, 0x60, 0xbd, 0x9f, 0x3c, 0x1a, 0xbe, 0x82, 0x0e, 0x83, 0xbe,
  0xc4, 0xae, 0x53, 0x3e, 0x58, 0xe4, 0x78, 0x3d, 0xd0, 0x49, 0x7f, 0x3e,
  0x66, 0x30, 0xe9, 0x3d, 0xdf, 0x33, 0x64, 0x3e, 0x08, 0x65, 0x82, 0xbe,
  0x13, 0x8c, 0x01, 0xbe, 0x92, 0xce, 0x46, 0xbd, 0xf9, 0xff, 0xa7, 0x3e,
  0x05, 0xed, 0x32, 0xbd, 0xf6, 0xd8, 0x0c, 0x3e, 0xbe, 0x68, 0xcc, 0x3d,
  0xb4, 0x44, 0x04, 0x3e, 0xe1, 0x87, 0x4a, 0xbd, 0xe4, 0x56, 0x54, 0xbe,
  0x7d, 0x54, 0xa9, 0xbe, 0xf2, 0x56, 0xb4, 0x3d, 0xdf, 0x41, 0xce, 0x3d,
  0xd7, 0xc7, 0x54, 0x3e, 0x5c, 0x04, 0x9d, 0xbe, 0xf0, 0x6c, 0xee, 0xbc,
  0xa8, 0x48, 0x39, 0x3d, 0xcc, 0x34, 0x85, 0xbe, 0x18, 0xd8, 0xac, 0x3c,
  0x40, 0x52, 0x2e, 0x3e, 0x93, 0x27, 0x75, 0xbe, 0x4e, 0xdb, 0x0b, 0x3f,
  0xe8, 0x3f, 0x7f, 0xbd, 0x3c, 0x2c, 0xf0, 0xbd, 0xe7, 0x21, 0x0a, 0xbf,
  0xf2, 0xeb, 0xcd, 0xbe, 0xcf, 0x69, 0xcd, 0xbd, 0x00, 0x52, 0x85, 0x3d,
  0x50, 0x30, 0xd0, 0x3d, 0x81, 0x2f, 0x00, 0xbe, 0x69, 0xe7, 0x34, 0x3e,
  0x6b, 0xd6, 0xed, 0x3d, 0x93, 0xa6, 0xc7, 0x3f, 0xc3, 0x10, 0x0c, 0xbe,
  0x62, 0xa3, 0x58, 0xbc, 0x33, 0xf9, 0xe4, 0x3d, 0x8e, 0xe1, 0x25, 0x3e,
  0x4e, 0xdf, 0x1f, 0xbe, 0x0d, 0xd5, 0x45, 0x3e, 0xb3, 0xa3, 0x1a, 0xbd,
  0x93, 0x68, 0x04, 0x3f, 0xf7, 0x8f, 0x6e, 0x3d, 0x5d, 0x02, 0xaa, 0x3c,
  0x41, 0x02, 0xa4, 0x3d, 0xf7, 0xaa, 0xb8, 0x3c, 0x90, 0x7f, 0x94, 0x3d,
  0x26, 0xc6, 0xa5, 0xbd, 0x7f, 0xc1, 0xee, 0xbd, 0x1a, 0x29, 0x01, 0x40,
  0x79, 0xc3, 0x7b, 0xbe, 0xec, 0x68, 0xa0, 0xbc, 0x8b, 0xff, 0x20, 0xbc,
  0x3c, 0x33, 0xe6, 0xbd, 0x65, 0xed, 0x0e, 0xbe, 0x32, 0x6d, 0x2e, 0xbd,
  0x98, 0x17, 0xec, 0xbd, 0xa7, 0x31, 0x82, 0x3e, 0x24, 0x37, 0x08, 0x3d,
  0xca, 0xb8, 0x87, 0xbd, 0x2e, 0xb0, 0x70, 0xbe, 0x21, 0x16, 0xa0, 0xbb,
  0xce, 0x73, 0x99, 0xbd, 0xbd, 0xee, 0x0a, 0xbe, 0xba, 0x90, 0x8a, 0xbd,
  0xee, 0xb9, 0x2c, 0x40, 0x86, 0x28, 0xbf, 0xbe, 0x8e, 0x79, 0x47, 0xbd,
  0xb7, 0x8d, 0x3f, 0xbe, 0xd8, 0x35, 0x92, 0xbd, 0x08, 0x7f, 0x3c, 0xbd,
  0xab, 0xe3, 0x16, 0x3d, 0xd5, 0xd7, 0x13, 0xbf, 0xc3, 0x9e, 0x64, 0x3e,
  0x4c, 0x06, 0x99, 0xbc, 0xb1, 0x7a, 0xd7, 0x3c, 0x98, 0xc9, 0xf5, 0xbe,
  0x82, 0x8c, 0x32, 0x3c, 0xe8, 0x39, 0x8b, 0x3c, 0x79, 0xa3, 0x0e, 0xbe,
  0x4b, 0xb0, 0x62, 0x3e, 0x4a, 0x0c, 0x22, 0x40, 0x4f, 0x50, 0xb2, 0xbe,
  0x31, 0x4e, 0x14, 0x3d, 0xfc, 0x08, 0xbf, 0xbe, 0x48, 0x93, 0x2b, 0xbd,
  0xa9, 0xc2, 0xd9, 0x3c, 0xbb, 0x0b, 0xfe, 0x3c, 0x37, 0x18, 0x09, 0xbf,
  0xe9, 0xac, 0x07, 0x3e, 0xed, 0x95, 0x06, 0xbc, 0xdf, 0x7f, 0x5b, 0xbd,
  0x16, 0x00, 0x2c, 0xbf, 0xf9, 0x18, 0x64, 0xbd, 0x09, 0x99, 0x16, 0x3e,
  0x56, 0xb1, 0xb5, 0xbc, 0x56, 0xe4, 0x11, 0xbe, 0x35, 0x72, 0x32, 0x40,
  0x78, 0x15, 0x98, 0xbe, 0x90, 0x84, 0xa8, 0x3d, 0xdf, 0xbe, 0xa4, 0xbc,
  0xd5, 0x80, 0x4a, 0x3d, 0xed, 0x29, 0xdb, 0xbc, 0x40, 0xe1, 0xd9, 0x3c,
  0xcd, 0xa0, 0x26, 0xbe, 0xc8, 0x0a, 0x70, 0x3e, 0x9f, 0x8b, 0x58, 0xbd,
  0x6e, 0x20, 0xb5, 0xbc, 0x26, 0x9d, 0xdb, 0xbe, 0xd6, 0x38, 0xec, 0xbc,
  0x0f, 0xd7, 0xbe, 0x3d, 0x2f, 0x65, 0x3f, 0x3c, 0xe7, 0x6b, 0x74, 0xbd,
  0xa8, 0xbb, 0x3d, 0x40, 0xcd, 0x39, 0x65, 0xbe, 0x22, 0xf8, 0x65, 0x3d,
  0xf4, 0x0b, 0x76, 0xbc, 0x97, 0x85, 0x50, 0x3d, 0x4b, 0xe1, 0x4b, 0x3d,
  0xeb, 0x30, 0x12, 0x3d, 0x58, 0xb0, 0xb7, 0xbd, 0xc8, 0x10, 0x45, 0x3e,
  0x95, 0x3c, 0xae, 0x3c, 0x65, 0xc5, 0x99, 0xbc, 0xd3, 0x8d, 0x71, 0xbe,
  0xda, 0x98, 0xfa, 0xbd, 0x98, 0x9d, 0x7e, 0x3d, 0x71, 0x83, 0x72, 0xbc,
  0xaa, 0x14, 0x68, 0xbd, 0xd5, 0xc3, 0xe7, 0x3f, 0xb4, 0xe6, 0xa3, 0xbe,
  0x42, 0x0c, 0xf6, 0x3c, 0x5f, 0x63, 0x5a, 0x3d, 0xa4, 0x07, 0x44, 0x3d,
  0xc7, 0xbc, 0xa4, 0xbd, 0xbc, 0xb2, 0xc7, 0x3d, 0xd5, 0x0b, 0xf1, 0xbe,
  0x9d, 0xe8, 0xc7, 0x3d, 0x6d, 0x13, 0x16, 0x3c, 0x5a, 0x4a, 0xa3, 0xbd,
  0x8c, 0x0c, 0x95, 0xbe, 0x05, 0x5e, 0xd1, 0x3d, 0xc7, 0x08, 0xd0, 0x3e,
  0xb0, 0x13, 0xbb, 0xbe, 0x91, 0xfc, 0x90, 0x3d, 0xce, 0x84, 0xf7, 0xbd,
  0xed, 0x43, 0xf6, 0x3b, 0x47, 0xa9, 0x80, 0xbe, 0x40, 0xae, 0xc4, 0x3e,
  0x7b, 0x0b, 0x64, 0xbe, 0x52, 0x64, 0x15, 0x3f, 0x87, 0xa2, 0x9c, 0xbe,
  0x38, 0xc6, 0x3f, 0xbe, 0x39, 0x9e, 0x8e, 0xbc, 0xc6, 0x01, 0x02, 0xbf,
  0x9c, 0x7b, 0x72, 0x3e, 0xe4, 0xaf, 0x49, 0x3d, 0xdb, 0x39, 0xd9, 0xbc,
  0x61, 0xd1, 0x11, 0x3e, 0xcd, 0xfd, 0x24, 0x3e, 0x14, 0x11, 0x0d, 0xbe,
  0x56, 0x1c, 0x29, 0xbe, 0xf3, 0x7f, 0x09, 0x3c, 0x84, 0x58, 0x87, 0xbe,
  0x9b, 0xdd, 0x9c, 0x3e, 0x70, 0x53, 0x01, 0x3e, 0x0b, 0x9d, 0x3d, 0x3f,
  0x4e, 0x1e, 0x3e, 0xbc, 0xf4, 0x63, 0x96, 0x3d, 0xa1, 0xe8, 0x83, 0x3d,
  0xcb, 0xa6, 0xca, 0xbd, 0x3d, 0xcc, 0x86, 0xbd, 0x85, 0x31, 0x8e, 0xbc,
  0x28, 0xc2, 0xdb, 0x3c, 0xf7, 0xce, 0x2c, 0x3e, 0xd0, 0xa8, 0x3c, 0x3e,
  0xcd, 0xa9, 0x64, 0xbe, 0xe7, 0x4d, 0x7f, 0xbe, 0x18, 0x02, 0x15, 0x3d,
  0xed, 0xb1, 0xa1, 0xbd, 0x26, 0xfd, 0xe3, 0x3e, 0x15, 0xa3, 0xdf, 0x3d,
  0xe2, 0xa5, 0x3a, 0x3f, 0x5a, 0x03, 0x5a, 0xbd, 0xdb, 0x6f, 0x89, 0xbd,
  0xaf, 0xa0, 0x9d, 0x3e, 0x7f, 0xb3, 0xa6, 0xbd, 0x3f, 0x69, 0x0b, 0xbe,
  0x05, 0x9d, 0xc2, 0xbb, 0xca, 0xeb, 0x59, 0x3b, 0x10, 0x9c, 0xea, 0x3d,
  0x0d, 0xdb, 0x35, 0x3e, 0xba, 0xcd, 0x0a, 0x3b, 0xe4, 0x15, 0x78, 0xbe,
  0x25, 0xd9, 0x3c, 0xbd, 0x9a, 0x3e, 0x03, 0xbe, 0x60, 0xf5, 0xcf, 0x3e,
  0x32, 0x58, 0x79, 0x3b, 0x35, 0xfe, 0x7b, 0x3e, 0x16, 0x4e, 0x3a, 0xbe,
  0xe5, 0x2b, 0x85, 0x3e, 0xb3, 0xb9, 0x05, 0x3e, 0x77, 0x26, 0x88, 0xbd,
  0x93, 0xe2, 0x9a, 0x3d, 0xd8, 0x72, 0x10, 0xbc, 0xcb, 0x65, 0xa5, 0x3c,
  0x4e, 0xd9, 0x99, 0x3e, 0x1a, 0x72, 0xcd, 0x3d, 0xd7, 0x93, 0x3c, 0x3d,
  0x0d, 0x57, 0x5e, 0xbe, 0xca, 0x45, 0x52, 0xbe, 0x5d, 0x3d, 0x98, 0xbe,
  0xe0, 0xac, 0xb5, 0x3e, 0x3e, 0x32, 0x6f, 0x3d, 0x44, 0x9d, 0x08, 0x3f,
  0xd2, 0xaa, 0xd0, 0x3c, 0xaa, 0x9a, 0x08, 0x3e, 0xea, 0xdd, 0xeb, 0x3d,
  0x6f, 0x2d, 0x98, 0xbe, 0xd4, 0xd8, 0x75, 0xbd, 0xfd, 0x78, 0xac, 0x3d,
  0xf7, 0x9b, 0xce, 0x3d, 0x9e, 0xd1, 0xd1, 0x3e, 0xab, 0x92, 0x10, 0x3e,
  0x64, 0x7a, 0x94, 0xbd, 0xd1, 0x9c, 0xa6, 0xbe, 0x3e, 0xc2, 0xdb, 0xbd,
  0x3d, 0xd3, 0x9b, 0xbd, 0x45, 0xe8, 0xf0, 0x3d, 0x2b, 0x78, 0x54, 0x3e,
  0x61, 0x67, 0x91, 0x3e, 0xa4, 0x7d, 0xaf, 0x3d, 0xdf, 0x00, 0xcf, 0x3d,
  0x15, 0xe5, 0x24, 0xbc, 0x91, 0xd4, 0x39, 0xbe, 0x64, 0x8a, 0x16, 0xbb,
  0x63, 0x5a, 0x0c, 0x3d, 0x7f, 0x78, 0x86, 0xba, 0x03, 0x13, 0x4b, 0xbc,
  0xa2, 0x78, 0x1e, 0x3c, 0x4a, 0x93, 0x11, 0x3d, 0x7c, 0x06, 0x11, 0x3e,
  0xc3, 0x33, 0x1e, 0xbe, 0xba, 0x9b, 0x98, 0xbe, 0x9f, 0xfd, 0x5c, 0x3e,
  0xbd, 0x23, 0x4f, 0x3e, 0x6e, 0x0d, 0x0e, 0x3f, 0x32, 0x98, 0xac, 0x3d,
  0xea, 0xf4, 0x1d, 0xbd, 0x24, 0x4e, 0x48, 0xbf, 0x00, 0x35, 0x26, 0xbf,
  0x0a, 0xfb, 0x60, 0xbe, 0xe6, 0x41, 0x69, 0x3e, 0x89, 0x61, 0x80, 0xbe,
  0x14, 0x71, 0xab, 0x3c, 0xa9, 0x65, 0xb9, 0x3e, 0x33, 0xaa, 0x61, 0xbd,
  0xe3, 0x04, 0x98, 0x3f, 0xb1, 0x91, 0xe8, 0xbe, 0xd0, 0x1d, 0x87, 0x3d,
  0x92, 0x45, 0x9e, 0x3d, 0x1d, 0xdb, 0x92, 0x3b, 0x77, 0x65, 0x7a, 0xbd,
  0xcd, 0xa8, 0x4b, 0x3e, 0x55, 0x1a, 0xe0, 0x3b, 0xa3, 0xe7, 0x06, 0x3e,
  0x78, 0x53, 0x78, 0x3e, 0xdf, 0xf0, 0x45, 0x3c, 0x7c, 0x1a, 0x28, 0xbe,
  0xc0, 0x81, 0x35, 0x3c, 0xa7, 0x22, 0xf9, 0xbd, 0xc0, 0x26, 0x10, 0x3e,
  0x36, 0xf6, 0xb0, 0xbd, 0x91, 0x85, 0x70, 0x3f, 0x6b, 0xe4, 0x8c, 0xbe,
  0x31, 0x43, 0x02, 0x3d, 0x40, 0x47, 0x47, 0xbd, 0x85, 0xda, 0xa4, 0xbd,
  0xba, 0x38, 0x92, 0xbb, 0x4e, 0x38, 0xe6, 0xbd, 0x03, 0xe8, 0xac, 0xbd,
  0xa6, 0x8f, 0x7c, 0x3e, 0x75, 0xd1, 0x99, 0x3c, 0xd6, 0xf7, 0x5b, 0x3d,
  0xfd, 0x33, 0x9b, 0xbe, 0x83, 0x51, 0x8e, 0x3d, 0xe4, 0xc4, 0xe8, 0xbd,
  0xcd, 0xe7, 0x1e, 0x3d, 0xdb, 0xfb, 0x87, 0xbe, 0x16, 0x1a, 0x91, 0x3f,
  0x40, 0x57, 0x13, 0xbe, 0xbd, 0x61, 0xbb, 0x3d, 0x2f, 0x62, 0xe2, 0x3c,
  0x02, 0xee, 0x18, 0xbd, 0x34, 0x1f, 0x81, 0x3c, 0x0a, 0xc5, 0xb1, 0xbd,
  0x54, 0xf3, 0xed, 0xbd, 0xba, 0xb3, 0x36, 0x3e, 0xba, 0x2a, 0x0f, 0xbc,
  0xde, 0x1f, 0xa5, 0xbd, 0xeb, 0x0b, 0xb5, 0xbe, 0x43, 0x4d, 0x50, 0x3c,
  0x8f, 0x9d, 0x48, 0x3d, 0x40, 0x3d, 0xb9, 0x3d, 0x4e, 0xa0, 0x89, 0x3e,
  0x27, 0x50, 0xa3, 0x3f, 0x24, 0xe7, 0x79, 0xbe, 0x24, 0x7d, 0xd4, 0x3d,
  0xa8, 0x19, 0x71, 0x3e, 0x81, 0x15, 0x9e, 0xbc, 0x60, 0x88, 0xbb, 0xbd,
  0xf7, 0x0c, 0x24, 0xbe, 0x52, 0x0a, 0xf2, 0xbd, 0x99, 0x2f, 0xed, 0x3d,
  0x5a, 0xea, 0x56, 0xbe, 0xfd, 0xc5, 0x68, 0xbe, 0xa2, 0x5f, 0x8d, 0xbe,
  0xc0, 0x2e, 0x28, 0xbd, 0x99, 0x2d, 0x8b, 0x3c, 0x9b, 0x60, 0x6b, 0x3d,
  0x56, 0x6d, 0x28, 0x3d, 0xd1, 0xcd, 0x9d, 0x3f, 0xbe, 0x4b, 0x72, 0xbe,
  0xbd, 0x16, 0x64, 0x3d, 0x7d, 0xd6, 0xf2, 0x3d, 0x0c, 0x0d, 0x0a, 0x3d,
  0x90, 0x0e, 0x3f, 0xbe, 0x6d, 0xbb, 0xf9, 0xbd, 0x44, 0xc7, 0xfa, 0xbd,
  0xa7, 0x81, 0x80, 0xbd, 0xcb, 0x46, 0x92, 0xbe, 0xdb, 0x28, 0x50, 0xbe,
  0xf1, 0x43, 0x1d, 0x3b, 0xb9, 0x78, 0x47, 0xbd, 0x24, 0x7a, 0x5d, 0xbd,
  0x34, 0x12, 0xdf, 0xbd, 0x08, 0x2e, 0xf9, 0xbd, 0x11, 0x06, 0xc0, 0x3f,
  0xbf, 0x5e, 0x2a, 0xbe, 0x24, 0x1f, 0x14, 0xbe, 0x32, 0xdc, 0x74, 0x3e,
  0xb5, 0x9d, 0xa7, 0x3d, 0x43, 0x2c, 0x67, 0xbe, 0x20, 0x8c, 0x6a, 0xbe,
  0x4e, 0x62, 0x50, 0xbe, 0xe8, 0xe6, 0xc1, 0xbe, 0x0c, 0x5f, 0xb0, 0xbe,
  0x32, 0x7e, 0x13, 0xbd, 0x62, 0x12, 0xf5, 0xbd, 0x6d, 0x23, 0x08, 0xbe,
  0x5c, 0x26, 0x04, 0x3e, 0x2c, 0x33, 0x21, 0xbd, 0xfb, 0x7b, 0x85, 0xbd,
  0xb5, 0x8f, 0x8d, 0x3f, 0x7e, 0x69, 0x68, 0xbe, 0xe8, 0xbf, 0xb5, 0xbd,
  0x9c, 0x7f, 0x89, 0x3d, 0xff, 0xa5, 0xb7, 0x3c, 0xff, 0x5b, 0x18, 0xbe,
  0x0e, 0xbf, 0x8f, 0xbe, 0xef, 0x99, 0x3e, 0xbe, 0x44, 0x3e, 0x56, 0x3e,
  0x3f, 0xe1, 0xe0, 0xbd, 0xca, 0xdb, 0x93, 0xbe, 0x3f, 0xc5, 0xcb, 0x3d,
  0x4a, 0xfe, 0xff, 0xff, 0x10, 0x00, 0x00, 0x00, 0x05, 0x00, 0x00, 0x00,
  0x14, 0x00, 0x00, 0x00, 0x2c, 0x00, 0x00, 0x00, 0x02, 0x00, 0x00, 0x00,
  0x10, 0x00, 0x00, 0x00, 0x70, 0x00, 0x00, 0x00, 0x17, 0x00, 0x00, 0x00,
  0x73, 0x65, 0x71, 0x75, 0x65, 0x6e, 0x74, 0x69, 0x61, 0x6c, 0x2f, 0x64,
  0x65, 0x6e, 0x73, 0x65, 0x2f, 0x4d, 0x61, 0x74, 0x4d, 0x75, 0x6c, 0x00,
  0x38, 0xfe, 0xff, 0xff, 0x2e, 0xff, 0xff, 0xff, 0x04, 0x00, 0x00, 0x00,
  0x08, 0x00, 0x00, 0x00, 0xff, 0xff, 0xff, 0xff, 0x70, 0x00, 0x00, 0x00,
  0x00, 0x00, 0x0e, 0x00, 0x18, 0x00, 0x08, 0x00, 0x07, 0x00, 0x0c, 0x00,
  0x10, 0x00, 0x14, 0x00, 0x0e, 0x00, 0x00, 0x00, 0x00, 0x00, 0x00, 0x02,
  0x10, 0x00, 0x00, 0x00, 0x04, 0x00, 0x00, 0x00, 0x10, 0x00, 0x00, 0x00,
  0x2c, 0x00, 0x00, 0x00, 0x01, 0x00, 0x00, 0x00, 0x02, 0x00, 0x00, 0x00,
  0x18, 0x00, 0x00, 0x00, 0x73, 0x65, 0x71, 0x75, 0x65, 0x6e, 0x74, 0x69,
  0x61, 0x6c, 0x2f, 0x66, 0x6c, 0x61, 0x74, 0x74, 0x65, 0x6e, 0x2f, 0x43,
  0x6f, 0x6e, 0x73, 0x74, 0x00, 0x00, 0x00, 0x00, 0xa0, 0xfe, 0xff, 0xff,
  0x96, 0xff, 0xff, 0xff, 0x04, 0x00, 0x00, 0x00, 0x0c, 0x00, 0x00, 0x00,
  0xcf, 0xb2, 0xb2, 0xbf, 0xdd, 0x84, 0x09, 0xbf, 0xa2, 0x20, 0xa7, 0x3f,
  0x0a, 0xff, 0xff, 0xff, 0x10, 0x00, 0x00, 0x00, 0x03, 0x00, 0x00, 0x00,
  0x10, 0x00, 0x00, 0x00, 0x3c, 0x00, 0x00, 0x00, 0x01, 0x00, 0x00, 0x00,
  0x03, 0x00, 0x00, 0x00, 0x29, 0x00, 0x00, 0x00, 0x73, 0x65, 0x71, 0x75,
  0x65, 0x6e, 0x74, 0x69, 0x61, 0x6c, 0x2f, 0x64, 0x65, 0x6e, 0x73, 0x65,
  0x5f, 0x31, 0x2f, 0x42, 0x69, 0x61, 0x73, 0x41, 0x64, 0x64, 0x2f, 0x52,
  0x65, 0x61, 0x64, 0x56, 0x61, 0x72, 0x69, 0x61, 0x62, 0x6c, 0x65, 0x4f,
  0x70, 0x00, 0x00, 0x00, 0x60, 0xff, 0xff, 0xff, 0x00, 0x00, 0x06, 0x00,
  0x08, 0x00, 0x04, 0x00, 0x06, 0x00, 0x00, 0x00, 0x04, 0x00, 0x00, 0x00,
  0x40, 0x00, 0x00, 0x00, 0x7c, 0xc5, 0x10, 0x3f, 0x7e, 0xaf, 0xa4, 0xbe,
  0x87, 0x2a, 0xd6, 0xbe, 0xe7, 0xb6, 0x38, 0xbf, 0xa4, 0xe9, 0x4f, 0x3d,
  0x7d, 0xa1, 0x7b, 0xbe, 0xc8, 0x67, 0x4e, 0xbf, 0xfa, 0xf1, 0x06, 0xbf,
  0xaa, 0xdb, 0x12, 0xbf, 0xde, 0xaa, 0xb9, 0xbe, 0x26, 0xb5, 0x2d, 0xbf,
  0x2a, 0x23, 0xda, 0x3e, 0x08, 0xc5, 0xac, 0x3e, 0x64, 0xd5, 0xbf, 0x3e,
  0xf0, 0x5c, 0x98, 0x3f, 0x0e, 0x23, 0x19, 0xbe, 0xae, 0xff, 0xff, 0xff,
  0x10, 0x00, 0x00, 0x00, 0x02, 0x00, 0x00, 0x00, 0x10, 0x00, 0x00, 0x00,
  0x3c, 0x00, 0x00, 0x00, 0x01, 0x00, 0x00, 0x00, 0x10, 0x00, 0x00, 0x00,
  0x27, 0x00, 0x00, 0x00, 0x73, 0x65, 0x71, 0x75, 0x65, 0x6e, 0x74, 0x69,
  0x61, 0x6c, 0x2f, 0x64, 0x65, 0x6e, 0x73, 0x65, 0x2f, 0x42, 0x69, 0x61,
  0x73, 0x41, 0x64, 0x64, 0x2f, 0x52, 0x65, 0x61, 0x64, 0x56, 0x61, 0x72,
  0x69, 0x61, 0x62, 0x6c, 0x65, 0x4f, 0x70, 0x00, 0x04, 0x00, 0x06, 0x00,
  0x04, 0x00, 0x00, 0x00, 0x00, 0x00, 0x0e, 0x00, 0x14, 0x00, 0x04, 0x00,
  0x00, 0x00, 0x08, 0x00, 0x0c, 0x00, 0x10, 0x00, 0x0e, 0x00, 0x00, 0x00,
  0x10, 0x00, 0x00, 0x00, 0x01, 0x00, 0x00, 0x00, 0x1c, 0x00, 0x00, 0x00,
  0x2c, 0x00, 0x00, 0x00, 0x04, 0x00, 0x00, 0x00, 0x01, 0x00, 0x00, 0x00,
  0x40, 0x00, 0x00, 0x00, 0x03, 0x00, 0x00, 0x00, 0x01, 0x00, 0x00, 0x00,
  0x0c, 0x00, 0x00, 0x00, 0x63, 0x6f, 0x6e, 0x76, 0x32, 0x64, 0x5f, 0x69,
  0x6e, 0x70, 0x75, 0x74, 0x00, 0x00, 0x00, 0x00, 0xfc, 0xff, 0xff, 0xff,
  0x04, 0x00, 0x04, 0x00, 0x04, 0x00, 0x00, 0x00
};

unsigned int model_tflite_len = 11708;// Fill the int in `src/model.cc` here